/* Code adapted from The TensorFlow Authors (2020). All Rights Reserved.
==============================================================================
*/

#include "model.h"

alignas(8) const unsigned char g_model2[] = {
  0x1c, 0x00, 0x00, 0x00, 0x54, 0x46, 0x4c, 0x33, 0x14, 0x00, 0x20, 0x00,
  0x1c, 0x00, 0x18, 0x00, 0x14, 0x00, 0x10, 0x00, 0x0c, 0x00, 0x00, 0x00,
  0x08, 0x00, 0x04, 0x00, 0x14, 0x00, 0x00, 0x00, 0x1c, 0x00, 0x00, 0x00,
  0x98, 0x00, 0x00, 0x00, 0xf0, 0x00, 0x00, 0x00, 0x94, 0x0e, 0x00, 0x00,
  0xa4, 0x0e, 0x00, 0x00, 0x24, 0x13, 0x00, 0x00, 0x03, 0x00, 0x00, 0x00,
  0x01, 0x00, 0x00, 0x00, 0x10, 0x00, 0x00, 0x00, 0x00, 0x00, 0x0a, 0x00,
  0x10, 0x00, 0x0c, 0x00, 0x08, 0x00, 0x04, 0x00, 0x0a, 0x00, 0x00, 0x00,
  0x0c, 0x00, 0x00, 0x00, 0x1c, 0x00, 0x00, 0x00, 0x3c, 0x00, 0x00, 0x00,
  0x0f, 0x00, 0x00, 0x00, 0x73, 0x65, 0x72, 0x76, 0x69, 0x6e, 0x67, 0x5f,
  0x64, 0x65, 0x66, 0x61, 0x75, 0x6c, 0x74, 0x00, 0x01, 0x00, 0x00, 0x00,
  0x04, 0x00, 0x00, 0x00, 0x90, 0xff, 0xff, 0xff, 0x07, 0x00, 0x00, 0x00,
  0x04, 0x00, 0x00, 0x00, 0x08, 0x00, 0x00, 0x00, 0x64, 0x65, 0x6e, 0x73,
  0x65, 0x5f, 0x31, 0x32, 0x00, 0x00, 0x00, 0x00, 0x01, 0x00, 0x00, 0x00,
  0x04, 0x00, 0x00, 0x00, 0x56, 0xf1, 0xff, 0xff, 0x04, 0x00, 0x00, 0x00,
  0x0e, 0x00, 0x00, 0x00, 0x64, 0x65, 0x6e, 0x73, 0x65, 0x5f, 0x31, 0x31,
  0x5f, 0x69, 0x6e, 0x70, 0x75, 0x74, 0x00, 0x00, 0x02, 0x00, 0x00, 0x00,
  0x34, 0x00, 0x00, 0x00, 0x04, 0x00, 0x00, 0x00, 0xdc, 0xff, 0xff, 0xff,
  0x0a, 0x00, 0x00, 0x00, 0x04, 0x00, 0x00, 0x00, 0x13, 0x00, 0x00, 0x00,
  0x43, 0x4f, 0x4e, 0x56, 0x45, 0x52, 0x53, 0x49, 0x4f, 0x4e, 0x5f, 0x4d,
  0x45, 0x54, 0x41, 0x44, 0x41, 0x54, 0x41, 0x00, 0x08, 0x00, 0x0c, 0x00,
  0x08, 0x00, 0x04, 0x00, 0x08, 0x00, 0x00, 0x00, 0x09, 0x00, 0x00, 0x00,
  0x04, 0x00, 0x00, 0x00, 0x13, 0x00, 0x00, 0x00, 0x6d, 0x69, 0x6e, 0x5f,
  0x72, 0x75, 0x6e, 0x74, 0x69, 0x6d, 0x65, 0x5f, 0x76, 0x65, 0x72, 0x73,
  0x69, 0x6f, 0x6e, 0x00, 0x0b, 0x00, 0x00, 0x00, 0xa0, 0x0d, 0x00, 0x00,
  0x98, 0x0d, 0x00, 0x00, 0x80, 0x0d, 0x00, 0x00, 0x60, 0x0d, 0x00, 0x00,
  0xd0, 0x00, 0x00, 0x00, 0xa0, 0x00, 0x00, 0x00, 0x98, 0x00, 0x00, 0x00,
  0x90, 0x00, 0x00, 0x00, 0x88, 0x00, 0x00, 0x00, 0x68, 0x00, 0x00, 0x00,
  0x04, 0x00, 0x00, 0x00, 0xfe, 0xf1, 0xff, 0xff, 0x04, 0x00, 0x00, 0x00,
  0x54, 0x00, 0x00, 0x00, 0x0c, 0x00, 0x00, 0x00, 0x08, 0x00, 0x0e, 0x00,
  0x08, 0x00, 0x04, 0x00, 0x08, 0x00, 0x00, 0x00, 0x10, 0x00, 0x00, 0x00,
  0x24, 0x00, 0x00, 0x00, 0x00, 0x00, 0x06, 0x00, 0x08, 0x00, 0x04, 0x00,
  0x06, 0x00, 0x00, 0x00, 0x04, 0x00, 0x00, 0x00, 0x00, 0x00, 0x00, 0x00,
  0x00, 0x00, 0x0a, 0x00, 0x10, 0x00, 0x0c, 0x00, 0x08, 0x00, 0x04, 0x00,
  0x0a, 0x00, 0x00, 0x00, 0x02, 0x00, 0x00, 0x00, 0x02, 0x00, 0x00, 0x00,
  0x04, 0x00, 0x00, 0x00, 0x06, 0x00, 0x00, 0x00, 0x32, 0x2e, 0x31, 0x31,
  0x2e, 0x30, 0x00, 0x00, 0x5e, 0xf2, 0xff, 0xff, 0x04, 0x00, 0x00, 0x00,
  0x10, 0x00, 0x00, 0x00, 0x31, 0x2e, 0x35, 0x2e, 0x30, 0x00, 0x00, 0x00,
  0x00, 0x00, 0x00, 0x00, 0x00, 0x00, 0x00, 0x00, 0xa8, 0xee, 0xff, 0xff,
  0xac, 0xee, 0xff, 0xff, 0xb0, 0xee, 0xff, 0xff, 0x86, 0xf2, 0xff, 0xff,
  0x04, 0x00, 0x00, 0x00, 0x20, 0x00, 0x00, 0x00, 0x9c, 0xae, 0xa9, 0xbd,
  0x9d, 0x9a, 0x73, 0xbf, 0xe4, 0xba, 0x0b, 0xbf, 0xf1, 0x47, 0x92, 0x3f,
  0xb2, 0xb0, 0xe1, 0x3e, 0x2f, 0xb6, 0x4c, 0xbf, 0xac, 0x06, 0xbd, 0x3e,
  0x7b, 0x3c, 0xd5, 0xbe, 0xb2, 0xf2, 0xff, 0xff, 0x04, 0x00, 0x00, 0x00,
  0x80, 0x0c, 0x00, 0x00, 0xd4, 0x4d, 0x8c, 0x3c, 0x08, 0x35, 0xd1, 0xbd,
  0x9a, 0xef, 0xaf, 0x3b, 0xdc, 0xad, 0xbc, 0xbd, 0x6f, 0xfe, 0xd0, 0x3d,
  0x0f, 0xb9, 0x28, 0x3e, 0xde, 0x9c, 0x10, 0x3d, 0x87, 0xca, 0xf2, 0x3d,
  0x42, 0x25, 0x16, 0xbd, 0xb0, 0x57, 0x1c, 0x3e, 0x78, 0xcb, 0x6e, 0xbd,
  0xa7, 0x04, 0xa7, 0xbb, 0xab, 0xcb, 0x3b, 0xbd, 0x6e, 0x93, 0x81, 0x3c,
  0x00, 0x42, 0x01, 0x3e, 0x1a, 0xf8, 0x37, 0x3d, 0x8c, 0x7f, 0xa9, 0xbd,
  0x3d, 0xc5, 0x0f, 0x3e, 0x12, 0xc5, 0x17, 0x3e, 0xeb, 0xca, 0xca, 0xbd,
  0xcd, 0x72, 0x31, 0x3d, 0x51, 0xc1, 0x82, 0x3d, 0xd0, 0xf5, 0xf1, 0x3c,
  0x82, 0x1c, 0x6f, 0xbc, 0x4c, 0x8c, 0x57, 0x3c, 0xe1, 0x82, 0x00, 0x3e,
  0xdd, 0x6c, 0x22, 0x3d, 0xe4, 0xeb, 0x37, 0xbd, 0x7c, 0xb9, 0xf5, 0x3c,
  0xb3, 0xc1, 0xbd, 0x3d, 0xc6, 0x78, 0xd3, 0xbd, 0x14, 0x66, 0x48, 0xbc,
  0xa9, 0xc4, 0xd9, 0xbd, 0xca, 0xe6, 0x58, 0xbd, 0x1f, 0x4b, 0xba, 0x3d,
  0x7f, 0x09, 0x09, 0x3e, 0x57, 0xa3, 0x09, 0x3e, 0x1e, 0x9d, 0x8e, 0xbd,
  0x5a, 0x40, 0xc5, 0xbd, 0x21, 0x43, 0xfd, 0xbc, 0x1a, 0x66, 0x0f, 0xbe,
  0xe2, 0x21, 0x8f, 0x3d, 0x1e, 0x22, 0x17, 0x3c, 0x7e, 0x97, 0x0b, 0xbe,
  0x65, 0x21, 0xb0, 0x3d, 0x01, 0x6e, 0x0b, 0x3d, 0xa8, 0x82, 0x72, 0xbd,
  0xc8, 0xa8, 0x27, 0x3e, 0xd2, 0x49, 0x6c, 0x3d, 0x6c, 0x39, 0x88, 0xbd,
  0xb0, 0x23, 0x95, 0x3d, 0x7c, 0x3c, 0x72, 0xbd, 0x80, 0xbf, 0x3a, 0x3e,
  0xea, 0xab, 0xfd, 0xbc, 0x73, 0x5a, 0xa8, 0x3d, 0x2a, 0xf4, 0xac, 0xbd,
  0x42, 0xaa, 0x36, 0x3c, 0x03, 0x9b, 0xf2, 0xbb, 0x21, 0xf7, 0x6a, 0x3e,
  0xf1, 0x6c, 0x52, 0xbd, 0xc1, 0xaa, 0x43, 0x3d, 0x6f, 0x37, 0xd7, 0xbd,
  0x6c, 0x55, 0xcd, 0xbd, 0x6f, 0x08, 0x13, 0x3e, 0x2f, 0xf5, 0xe4, 0x3d,
  0xfa, 0x2d, 0x94, 0x3d, 0x80, 0xde, 0xeb, 0xbc, 0xfc, 0xde, 0xb7, 0xbc,
  0x7e, 0x90, 0x2c, 0x3d, 0x06, 0x95, 0x92, 0xbc, 0xab, 0x84, 0xc3, 0xbd,
  0x0a, 0x4c, 0x18, 0x3e, 0xf2, 0x80, 0x0a, 0xbe, 0x31, 0x2f, 0xfb, 0x3d,
  0x75, 0x7e, 0xa4, 0x3c, 0xb0, 0x15, 0xd1, 0x3d, 0x9a, 0x09, 0xc2, 0xbd,
  0x82, 0xe2, 0xc7, 0xba, 0x4a, 0xc0, 0xce, 0x3d, 0x55, 0x1c, 0x1e, 0xbd,
  0xab, 0xf0, 0xc5, 0xbd, 0xd5, 0xa7, 0x91, 0x3d, 0x17, 0x2e, 0x17, 0x3e,
  0x50, 0x65, 0x1f, 0x3e, 0x50, 0xe1, 0x42, 0x3c, 0xbf, 0x25, 0x28, 0xbd,
  0x4a, 0xa6, 0x0a, 0xbd, 0x43, 0x3b, 0x0d, 0xbe, 0x4e, 0xc7, 0x48, 0xbd,
  0x77, 0x08, 0xa7, 0x3d, 0xcc, 0x05, 0xa9, 0x3d, 0x5c, 0x7a, 0x1f, 0x3e,
  0x33, 0x0c, 0x28, 0x3e, 0x18, 0xe5, 0x2c, 0xbd, 0x96, 0xab, 0xa0, 0xbd,
  0x42, 0x34, 0x3d, 0xbd, 0xec, 0x5e, 0x4a, 0xbd, 0xac, 0x67, 0x8a, 0xbd,
  0x06, 0xf7, 0x7f, 0xbd, 0x27, 0xe6, 0xf8, 0x3d, 0xfd, 0xcd, 0xf3, 0x3d,
  0xe7, 0xaf, 0xa1, 0x3c, 0xf8, 0xb6, 0x0d, 0xbc, 0x7f, 0x22, 0x7a, 0x3c,
  0x40, 0x1e, 0x60, 0x3d, 0xcc, 0xf8, 0x01, 0x3e, 0x4c, 0x03, 0xfb, 0x3d,
  0x45, 0x75, 0xce, 0xbc, 0x84, 0x4b, 0xbf, 0x3c, 0x6d, 0xde, 0x8e, 0xbd,
  0xa0, 0x1a, 0xac, 0xbc, 0x88, 0xbc, 0x1f, 0x3d, 0xf7, 0xb2, 0x88, 0x3d,
  0x5e, 0xef, 0x0a, 0x3e, 0x4b, 0x20, 0xf3, 0x3b, 0x21, 0x05, 0xe2, 0xbc,
  0x1c, 0xc3, 0x7f, 0xbc, 0x8e, 0x0c, 0x58, 0x3d, 0xb4, 0x0d, 0x06, 0xbe,
  0xd3, 0xb1, 0xca, 0xbd, 0xe9, 0x0a, 0x66, 0x3d, 0xb9, 0xba, 0xfc, 0x3d,
  0xce, 0xe8, 0xe7, 0x3d, 0x5e, 0xe1, 0x5f, 0x3d, 0xe9, 0x90, 0x03, 0xbe,
  0xbf, 0x5f, 0xce, 0xbd, 0xf0, 0x33, 0x26, 0x3e, 0xd7, 0xda, 0xeb, 0xbc,
  0x55, 0xdd, 0x33, 0x3d, 0x03, 0xf7, 0x2b, 0x3e, 0x02, 0x16, 0x27, 0xbd,
  0x6b, 0x66, 0x47, 0xbd, 0x59, 0x1f, 0x03, 0xbe, 0x20, 0x86, 0x4c, 0x3e,
  0x05, 0x74, 0xa0, 0x3d, 0x4e, 0x48, 0x01, 0xbd, 0x3b, 0xfe, 0x4f, 0x3d,
  0xef, 0xed, 0x0a, 0x3e, 0xf4, 0x66, 0x0d, 0x3b, 0x44, 0x82, 0xf7, 0xbd,
  0x88, 0x44, 0x11, 0xbe, 0x0f, 0xfe, 0x9d, 0x3d, 0x23, 0x21, 0xf8, 0xbb,
  0x45, 0x19, 0x77, 0x3c, 0xe3, 0x7d, 0x83, 0x3d, 0xff, 0xbb, 0x1e, 0xbe,
  0xfd, 0xe9, 0x20, 0xbe, 0x37, 0x02, 0xa7, 0x3d, 0x68, 0xb8, 0xba, 0xbc,
  0x7d, 0x54, 0xc9, 0x3c, 0xb0, 0xb2, 0x63, 0x3d, 0x7b, 0xd2, 0x98, 0xbd,
  0x45, 0x5d, 0xfa, 0xbd, 0x5f, 0xc9, 0xb6, 0x3d, 0x61, 0x16, 0x3d, 0x3d,
  0xc2, 0x6d, 0x4e, 0xbd, 0xd9, 0x6d, 0x45, 0x3e, 0xbb, 0x14, 0x8e, 0xba,
  0xc1, 0x2a, 0x14, 0xbd, 0xba, 0xf7, 0x5a, 0x3d, 0x4d, 0x82, 0x08, 0x3d,
  0x3a, 0x77, 0xd5, 0x3d, 0x12, 0xae, 0x08, 0x3e, 0x20, 0xec, 0x09, 0xbd,
  0xef, 0x82, 0x22, 0x3e, 0x37, 0x23, 0x8f, 0xbd, 0x1a, 0x8e, 0xde, 0xbd,
  0xfa, 0x11, 0xfc, 0x3d, 0x18, 0xc5, 0x82, 0xbd, 0xe1, 0x3e, 0xbc, 0xbd,
  0xbd, 0xfb, 0xc7, 0x3d, 0x09, 0x73, 0xc7, 0xbc, 0xd9, 0xa3, 0xf9, 0x3b,
  0xbf, 0x4e, 0x01, 0xbd, 0xa5, 0x1a, 0x61, 0xbd, 0xc2, 0x63, 0x09, 0xbe,
  0x47, 0xfe, 0x9a, 0x3d, 0xc5, 0x79, 0x36, 0xbc, 0x3e, 0xb8, 0xa2, 0x3b,
  0x15, 0xf6, 0x1b, 0xbe, 0x05, 0x0b, 0xb6, 0xbb, 0x84, 0xe7, 0xa8, 0x3d,
  0x81, 0x31, 0xd2, 0x3c, 0xac, 0x6f, 0x7f, 0x3d, 0x3d, 0x75, 0x4c, 0xbd,
  0x24, 0xa3, 0x3a, 0xbd, 0x91, 0x34, 0xb4, 0x3d, 0x36, 0x3a, 0xc3, 0xbd,
  0x98, 0xbe, 0xc6, 0xbd, 0x6e, 0xfa, 0xb1, 0xba, 0x00, 0x00, 0x45, 0x3e,
  0x5c, 0x08, 0xcb, 0x3c, 0xa4, 0x96, 0x7c, 0xbd, 0x09, 0xee, 0xf0, 0x3d,
  0x3f, 0x4b, 0x75, 0xbd, 0x2e, 0x78, 0xfd, 0x3d, 0xa8, 0x7c, 0xff, 0xbb,
  0x4f, 0x71, 0xf3, 0x3d, 0x73, 0xbe, 0x9b, 0xbc, 0xf6, 0x90, 0xda, 0xbd,
  0x76, 0xcf, 0x40, 0xbe, 0xf1, 0xa3, 0x2a, 0xbe, 0x6b, 0x59, 0x5e, 0xbe,
  0x39, 0xec, 0x8c, 0xbe, 0xdc, 0x2a, 0xc6, 0xbd, 0x4c, 0x61, 0x1e, 0xbd,
  0x6b, 0x6f, 0x0d, 0xbe, 0x9e, 0xb3, 0x0b, 0xbe, 0x5a, 0xc3, 0x1e, 0xbe,
  0x2a, 0x74, 0x45, 0xbe, 0x90, 0xe4, 0x3c, 0xbc, 0xee, 0x6e, 0xca, 0x3c,
  0xdd, 0xe0, 0x5f, 0xbe, 0x65, 0x49, 0x54, 0x3d, 0x3e, 0xe5, 0xd4, 0xbd,
  0xc0, 0xc1, 0x01, 0xbd, 0xeb, 0xd2, 0x1f, 0x3d, 0xca, 0x6f, 0x14, 0x3e,
  0x8d, 0xaa, 0x7b, 0x3b, 0x7f, 0xd3, 0x8b, 0x3d, 0x44, 0xd2, 0x91, 0x3d,
  0x42, 0x66, 0x1b, 0x3c, 0x2b, 0x9a, 0x16, 0x3e, 0x48, 0xa4, 0x31, 0xbe,
  0xfb, 0x29, 0x31, 0x3e, 0x54, 0x15, 0x3a, 0xbe, 0xe3, 0x52, 0x54, 0xbd,
  0xd5, 0xb0, 0xa2, 0xbd, 0xb7, 0x95, 0x06, 0x3e, 0xd2, 0xbc, 0x9b, 0xbd,
  0xa4, 0x96, 0x34, 0xbb, 0x0e, 0x0d, 0xe8, 0xbc, 0x06, 0x2f, 0x8f, 0xbe,
  0x44, 0xeb, 0x8f, 0xbe, 0x3f, 0x7b, 0xfe, 0xbd, 0xea, 0xf3, 0x4e, 0xbe,
  0x2e, 0xcf, 0xf0, 0xbd, 0x32, 0xf7, 0x60, 0xbd, 0xa0, 0x4b, 0x97, 0x3d,
  0x67, 0x7e, 0x35, 0xbe, 0xee, 0xdd, 0x41, 0xbe, 0xc7, 0x37, 0x40, 0xbd,
  0xae, 0x5a, 0x37, 0xbd, 0x39, 0x2f, 0x2d, 0xbc, 0x64, 0x12, 0x74, 0xbe,
  0xea, 0xb8, 0x8d, 0xbe, 0xc2, 0x74, 0x5c, 0x3d, 0x67, 0x1e, 0xe7, 0xbd,
  0x13, 0xc0, 0xed, 0xbd, 0x64, 0x77, 0x2f, 0xbd, 0x9e, 0xbe, 0x9b, 0xbc,
  0xb6, 0x0b, 0x53, 0x3d, 0x78, 0x63, 0xd4, 0xba, 0xff, 0xea, 0x40, 0x3d,
  0xb5, 0xc9, 0xe4, 0xba, 0xb3, 0xc5, 0x19, 0xbd, 0x94, 0x93, 0x5e, 0x3d,
  0x32, 0x83, 0xe5, 0xbd, 0xba, 0x5e, 0xf9, 0x3d, 0x91, 0x61, 0xcc, 0xbd,
  0x42, 0x68, 0x4a, 0x3d, 0x13, 0xec, 0x25, 0xbd, 0x77, 0xb8, 0xfb, 0x3d,
  0x65, 0xbe, 0x38, 0xbd, 0xdf, 0xa2, 0x0a, 0xbe, 0xb3, 0x3d, 0x0e, 0xbd,
  0x93, 0xfa, 0x52, 0x3e, 0x51, 0x93, 0xcd, 0xbd, 0x42, 0xf3, 0x53, 0xbd,
  0xdf, 0x23, 0x62, 0xbd, 0x4b, 0xe7, 0xe6, 0xbd, 0xb6, 0x2e, 0x35, 0xbd,
  0x97, 0x99, 0xe2, 0xbc, 0x97, 0x7c, 0xf7, 0xbc, 0x88, 0x44, 0x69, 0x3e,
  0x9b, 0xcd, 0x21, 0xbc, 0x38, 0x03, 0x95, 0xbc, 0xe5, 0xd0, 0x43, 0x3d,
  0x5d, 0x92, 0x59, 0x3e, 0xe3, 0x8e, 0x60, 0x3d, 0x3a, 0x59, 0xe5, 0x3d,
  0xe8, 0x87, 0x18, 0x3e, 0x87, 0x0d, 0x4d, 0x3e, 0x2c, 0x33, 0x06, 0x3e,
  0xbd, 0xf6, 0x04, 0xbe, 0x9b, 0xc6, 0x3c, 0x3e, 0x44, 0x8d, 0x97, 0x3d,
  0x2c, 0xc5, 0x20, 0xbe, 0xd9, 0x25, 0xd5, 0x3d, 0x52, 0x79, 0xb9, 0xbd,
  0xf3, 0x2f, 0xe3, 0x3d, 0x1b, 0x2e, 0x0d, 0xbd, 0x23, 0x96, 0x1a, 0xbe,
  0xa5, 0xfa, 0x9f, 0xbd, 0x62, 0xea, 0x0b, 0x3d, 0xe5, 0x3c, 0xf7, 0xbd,
  0xd1, 0x38, 0x0e, 0x3d, 0x32, 0xf6, 0x07, 0x3e, 0xc4, 0xf0, 0x04, 0x3d,
  0x4b, 0x9b, 0x2d, 0x3d, 0x85, 0x89, 0xc2, 0xbd, 0xbf, 0x15, 0x04, 0xbe,
  0x3d, 0x7a, 0xab, 0x3b, 0xdc, 0x76, 0xb8, 0xbd, 0xff, 0x94, 0x9b, 0xbd,
  0x3b, 0x56, 0x56, 0x3d, 0x4d, 0xf6, 0x20, 0x3e, 0x86, 0xc1, 0x4a, 0xbd,
  0x69, 0xb0, 0x36, 0xbe, 0x7e, 0x7e, 0x63, 0xbe, 0x48, 0x3b, 0x55, 0x3d,
  0xcd, 0xd6, 0x8f, 0xbd, 0x2d, 0x5d, 0xb2, 0x3c, 0xe3, 0x2a, 0x1e, 0x3e,
  0xee, 0x7b, 0x33, 0x3c, 0x3c, 0xb3, 0x4b, 0xbd, 0xfa, 0x10, 0x6f, 0xbd,
  0x10, 0x78, 0x02, 0x3e, 0x29, 0xa8, 0x85, 0xbd, 0xfe, 0x7e, 0xda, 0xbd,
  0x7b, 0x4d, 0x9c, 0xbd, 0x27, 0x9d, 0x1e, 0x3d, 0xdd, 0x28, 0x5e, 0xbd,
  0xa1, 0x3b, 0x77, 0x3e, 0x0f, 0x18, 0xf2, 0x3d, 0xa1, 0x2d, 0xbe, 0x3d,
  0xcf, 0xaa, 0x0e, 0x3e, 0xd0, 0xe6, 0x34, 0x3e, 0x45, 0xf8, 0x19, 0x3c,
  0x09, 0xb7, 0x5c, 0x3d, 0x7c, 0xe5, 0x26, 0x3e, 0x00, 0x79, 0x71, 0x3d,
  0x36, 0x37, 0x0b, 0x3d, 0x44, 0x92, 0x94, 0x3d, 0x42, 0x8f, 0x3d, 0x3c,
  0xff, 0x62, 0x2c, 0x3d, 0xa1, 0x86, 0x30, 0x3e, 0x59, 0xa4, 0xe9, 0x3d,
  0xe4, 0x9b, 0xb0, 0x3d, 0x5a, 0xda, 0x03, 0xbd, 0xca, 0x32, 0x8b, 0x3c,
  0x5a, 0xcc, 0x28, 0x3e, 0xdb, 0x5f, 0xd7, 0xbc, 0x5e, 0x41, 0xb6, 0xbd,
  0x8d, 0xa1, 0xb6, 0x3d, 0x19, 0x11, 0x0a, 0x3e, 0x41, 0xb1, 0x99, 0xbd,
  0x60, 0xcc, 0x09, 0x3d, 0x32, 0xe4, 0x01, 0x3d, 0xc5, 0xf8, 0x4f, 0xbd,
  0x07, 0xed, 0x23, 0x3e, 0x9b, 0x8b, 0x37, 0xbd, 0xa1, 0x35, 0xf6, 0x3b,
  0x14, 0x45, 0x1f, 0x3e, 0x91, 0xc8, 0x5f, 0xbc, 0x00, 0x1c, 0xed, 0x3c,
  0xa3, 0x51, 0x9d, 0x3d, 0xa4, 0x45, 0x07, 0xbd, 0xa7, 0xbc, 0x90, 0x3e,
  0xf5, 0xe7, 0x50, 0x3e, 0xb3, 0x7a, 0xf3, 0x3d, 0x65, 0x6b, 0x26, 0x3e,
  0x0a, 0x40, 0x00, 0x3d, 0xb4, 0x79, 0x4b, 0x3e, 0xfd, 0x34, 0x10, 0x3e,
  0x3d, 0x69, 0x33, 0x3e, 0xd0, 0xfb, 0x76, 0x3e, 0x35, 0x99, 0x1d, 0x3e,
  0x23, 0x4a, 0xe8, 0xbd, 0xfa, 0x26, 0x3f, 0x3e, 0x3c, 0x40, 0x0e, 0x3e,
  0x68, 0xe3, 0x1f, 0x3e, 0xeb, 0x10, 0x3e, 0xbe, 0x4e, 0xda, 0x2b, 0xbd,
  0xc9, 0xb6, 0xc0, 0x3c, 0xaf, 0xb0, 0xbd, 0xbd, 0x6e, 0xbe, 0xd3, 0x3d,
  0xf0, 0xb4, 0x16, 0xbe, 0x11, 0xd3, 0x4f, 0xbe, 0x9a, 0xdc, 0x3a, 0xbb,
  0x47, 0x25, 0x42, 0x3d, 0xee, 0x0c, 0xd6, 0xbd, 0x31, 0x46, 0xbf, 0x3d,
  0x68, 0xa6, 0xa0, 0xbc, 0x2d, 0xd4, 0x66, 0xba, 0xbb, 0x2d, 0x99, 0x3b,
  0x27, 0x0d, 0x87, 0x3c, 0x0f, 0x55, 0xfe, 0xbc, 0xb2, 0x1c, 0x23, 0x3e,
  0x51, 0x25, 0x51, 0x3d, 0xdd, 0x3c, 0xc5, 0x3c, 0xe9, 0xb3, 0x04, 0x3e,
  0x6d, 0x1a, 0x2f, 0x3e, 0xff, 0x13, 0x37, 0x3e, 0x98, 0x7f, 0xa7, 0xbc,
  0xdd, 0x7e, 0x67, 0x3e, 0xe4, 0x99, 0x98, 0xbd, 0x00, 0xf9, 0x45, 0x3e,
  0xd4, 0xc9, 0x5a, 0x3d, 0xc7, 0xd2, 0x1a, 0x3d, 0x38, 0x94, 0x24, 0xbe,
  0x86, 0x50, 0x00, 0x3e, 0x51, 0x5a, 0xb0, 0xbc, 0xfc, 0x6a, 0x17, 0xbe,
  0xa2, 0x7b, 0xb3, 0xbd, 0x41, 0xe4, 0x70, 0xbd, 0x0e, 0x59, 0xd8, 0x3d,
  0x30, 0x96, 0xf6, 0x3c, 0xf6, 0xe0, 0xa0, 0x3d, 0xbe, 0x81, 0x10, 0xbd,
  0x0c, 0xdd, 0x5f, 0xbd, 0x08, 0x38, 0xbf, 0x3d, 0xe5, 0xf4, 0x99, 0xbd,
  0x4f, 0xff, 0x09, 0xbe, 0x01, 0x88, 0x16, 0xbd, 0xf1, 0x22, 0xf0, 0x3d,
  0xb2, 0xf5, 0x52, 0xbd, 0x53, 0x5e, 0xa0, 0x3d, 0x2a, 0x35, 0x4a, 0x3d,
  0x05, 0x93, 0xcb, 0x3d, 0x28, 0xce, 0x6d, 0x3c, 0xf2, 0x57, 0x80, 0xbd,
  0xd3, 0x03, 0x9c, 0x3d, 0xad, 0x9b, 0xa1, 0x3d, 0x1f, 0x39, 0xd4, 0xbb,
  0xff, 0x52, 0xb7, 0xbc, 0xfa, 0xe5, 0xf7, 0x3d, 0x7b, 0xcc, 0x2f, 0x3e,
  0x57, 0x1f, 0x83, 0xbd, 0x78, 0x13, 0xb3, 0xbd, 0xa9, 0x35, 0x9e, 0xbd,
  0xbd, 0x38, 0x32, 0x3c, 0x9e, 0xd6, 0x0e, 0xbd, 0x52, 0xb9, 0x33, 0xbb,
  0xa8, 0xc1, 0xbf, 0xbd, 0xfa, 0xe8, 0xb0, 0xbd, 0x56, 0x65, 0xba, 0x3d,
  0x7f, 0x23, 0x05, 0xbd, 0x3c, 0x72, 0x05, 0xbe, 0xf7, 0x42, 0xa5, 0x3d,
  0x87, 0xb6, 0x08, 0xbe, 0x62, 0x82, 0x19, 0xbe, 0xc6, 0x4c, 0xad, 0x3d,
  0xa4, 0x1e, 0x3e, 0x3c, 0x7a, 0x01, 0x94, 0x3a, 0xf2, 0x9f, 0x5c, 0x3d,
  0x36, 0x8c, 0x19, 0xbe, 0x44, 0x31, 0xfb, 0x3b, 0x5a, 0x65, 0x68, 0xbb,
  0xaf, 0x73, 0xee, 0x3c, 0xaa, 0xa0, 0x8f, 0x3d, 0xd8, 0xaf, 0x02, 0xbd,
  0xca, 0x00, 0x42, 0x3d, 0x32, 0x8e, 0x26, 0xbd, 0x50, 0x1d, 0x80, 0xbd,
  0xa6, 0x5f, 0xdb, 0x3d, 0xea, 0x5c, 0x3a, 0x3d, 0x09, 0x5b, 0xd0, 0xbd,
  0x4a, 0x9c, 0x68, 0x3d, 0xac, 0x3b, 0xa8, 0xbd, 0x5c, 0x13, 0xba, 0xbd,
  0x6e, 0x53, 0xd6, 0x3d, 0xce, 0x6c, 0x20, 0xbd, 0xbd, 0x99, 0x98, 0x3c,
  0x7f, 0x94, 0xbb, 0xbd, 0x1f, 0x5a, 0x6a, 0xbd, 0x0d, 0x89, 0xf8, 0x3d,
  0x7c, 0x1b, 0xa9, 0xbd, 0x80, 0xe3, 0xa4, 0x3d, 0x9e, 0x89, 0x19, 0xbd,
  0xb6, 0x9d, 0xfd, 0x3d, 0x92, 0x62, 0x4c, 0xbd, 0x82, 0xfe, 0xd4, 0xbd,
  0x09, 0x16, 0x6e, 0x3d, 0x81, 0xc8, 0x5e, 0x3c, 0xdf, 0x49, 0x47, 0xbb,
  0x49, 0x39, 0x29, 0xbd, 0x3f, 0xae, 0xe1, 0x3c, 0x36, 0x82, 0x05, 0x3d,
  0x42, 0x97, 0xc8, 0xbd, 0x49, 0x88, 0xd0, 0x3d, 0x00, 0x1e, 0xd6, 0x3d,
  0x38, 0x99, 0xc7, 0xbd, 0x4c, 0x3a, 0xed, 0xbd, 0xbe, 0xbc, 0x08, 0x3e,
  0x3a, 0x71, 0x61, 0xbd, 0xad, 0x51, 0x80, 0xbd, 0xca, 0xa5, 0xcf, 0x3d,
  0x09, 0x7f, 0xfb, 0xbd, 0x35, 0x18, 0xd4, 0xbb, 0xe3, 0xa4, 0x9f, 0x3d,
  0x04, 0x74, 0x87, 0x3c, 0xfe, 0xf6, 0x1c, 0xbe, 0xac, 0x57, 0x18, 0x3d,
  0x29, 0xfd, 0x04, 0xbd, 0xfa, 0xac, 0xd0, 0x3d, 0x69, 0x7e, 0x3e, 0x3c,
  0xbb, 0xfe, 0x01, 0xbe, 0x79, 0x31, 0xbc, 0xbd, 0xe4, 0x5b, 0x0e, 0x3d,
  0x11, 0x27, 0xab, 0x3d, 0x7f, 0xbb, 0xb2, 0x3d, 0x37, 0xc6, 0xa6, 0xbd,
  0x69, 0x4a, 0xd6, 0xbd, 0x2c, 0xc2, 0xda, 0xbc, 0xd7, 0x91, 0xdb, 0xbd,
  0x53, 0x67, 0xdf, 0x3d, 0xa0, 0x8a, 0xc8, 0x3d, 0x54, 0x7e, 0x23, 0xbe,
  0xb4, 0xb5, 0x6e, 0xbd, 0xd8, 0x03, 0xcb, 0x3d, 0xd0, 0xfd, 0xbb, 0x3d,
  0x3a, 0x3b, 0x44, 0x3d, 0x06, 0x8c, 0xf7, 0xbd, 0x27, 0xab, 0x49, 0xbd,
  0xe9, 0x58, 0xbd, 0xbd, 0xd0, 0xf7, 0x99, 0xbd, 0xcb, 0x14, 0x1c, 0x3e,
  0xcd, 0x32, 0x09, 0xbe, 0xa8, 0x7d, 0x34, 0x3c, 0x3a, 0x89, 0xad, 0x3d,
  0xb4, 0xe7, 0x83, 0xbd, 0x27, 0x2d, 0xcc, 0xbd, 0xe1, 0x1f, 0xc7, 0x3b,
  0x30, 0x25, 0x3f, 0xbd, 0x0a, 0xc0, 0xe5, 0x3d, 0x07, 0x9b, 0xfa, 0xbd,
  0x00, 0x37, 0x94, 0x3d, 0xd0, 0x7b, 0x7e, 0x3a, 0x13, 0x78, 0x2f, 0xbd,
  0x72, 0x97, 0xb2, 0x3c, 0xce, 0xcb, 0xc8, 0x3d, 0x0c, 0x64, 0xe3, 0x3b,
  0xd7, 0xb9, 0x40, 0x3d, 0xb9, 0x58, 0x74, 0xbd, 0x54, 0x20, 0xa3, 0xbd,
  0xf4, 0xa2, 0x20, 0xbd, 0x56, 0x55, 0xcf, 0x3c, 0x82, 0x6e, 0xdb, 0xbd,
  0x43, 0xdb, 0xf7, 0xbd, 0xa4, 0xa9, 0x5d, 0x3d, 0x03, 0x96, 0x7c, 0x3d,
  0x3a, 0xe6, 0x9f, 0xbd, 0xae, 0x85, 0x15, 0x3c, 0x0d, 0x75, 0xac, 0xbd,
  0x83, 0xa1, 0xe9, 0x3c, 0x9a, 0xfa, 0x04, 0xbd, 0x49, 0x06, 0x38, 0x3d,
  0x91, 0x78, 0x00, 0xbe, 0x2e, 0xe4, 0x8d, 0xbd, 0xbe, 0x45, 0x5e, 0xbd,
  0x88, 0x45, 0x8c, 0x3d, 0x95, 0xfe, 0x85, 0xbd, 0xc8, 0x45, 0x9d, 0xbd,
  0x9a, 0x3c, 0x9e, 0x3d, 0xe5, 0xf7, 0x02, 0xbe, 0xa1, 0x79, 0xb7, 0x3d,
  0x99, 0x29, 0x9c, 0x3b, 0xcf, 0x0f, 0xee, 0x3d, 0xbb, 0x61, 0x42, 0xbd,
  0x41, 0x2c, 0x95, 0x3c, 0x3f, 0x16, 0xda, 0xbd, 0x5a, 0x1e, 0x3e, 0x3e,
  0x7e, 0x6f, 0x99, 0x3d, 0xbe, 0x75, 0xa7, 0xbd, 0xad, 0x0e, 0x3a, 0xbd,
  0x1a, 0x09, 0xe4, 0xbd, 0xb8, 0xca, 0xaf, 0x3d, 0x45, 0x3c, 0x39, 0xbd,
  0x5b, 0x33, 0x26, 0xbd, 0x41, 0x98, 0x86, 0x3d, 0xad, 0x36, 0xc8, 0xbd,
  0x09, 0xe6, 0x65, 0x3d, 0x68, 0x45, 0x32, 0xbe, 0x51, 0x5e, 0xc8, 0x3c,
  0xd1, 0x66, 0xeb, 0xbd, 0xe6, 0x52, 0x4c, 0xbd, 0xf1, 0x99, 0x62, 0xbd,
  0x48, 0xd2, 0x8d, 0x3d, 0x25, 0x4c, 0x90, 0xbd, 0xc8, 0xc1, 0x7c, 0xbd,
  0x01, 0x55, 0xd5, 0xbd, 0xdf, 0x81, 0xd6, 0x3d, 0x71, 0x2e, 0xf0, 0xbd,
  0x38, 0xd1, 0x87, 0x3d, 0xa4, 0xcc, 0x4c, 0x3d, 0x17, 0x0d, 0xe2, 0xbd,
  0x10, 0xe3, 0xdb, 0xbd, 0x72, 0x9b, 0xfe, 0x3d, 0x91, 0xb9, 0x1f, 0x3e,
  0x3b, 0xa2, 0xc4, 0x39, 0x8b, 0xee, 0x6a, 0xbd, 0x7b, 0xec, 0xed, 0x3d,
  0x8d, 0xba, 0xc6, 0xbd, 0x5c, 0x2c, 0x4a, 0x3d, 0x37, 0x3c, 0xa2, 0xbc,
  0xb9, 0xc7, 0x91, 0xbc, 0x59, 0x02, 0x77, 0xbd, 0x98, 0xc2, 0x18, 0x3d,
  0x85, 0x85, 0x0d, 0xbe, 0x24, 0xc3, 0x18, 0xbc, 0x35, 0x39, 0x8d, 0xbd,
  0xd8, 0xce, 0xdc, 0xbd, 0x43, 0x67, 0xbe, 0xbd, 0xc6, 0x47, 0x27, 0xbd,
  0x38, 0x50, 0x3f, 0xbe, 0x1e, 0x71, 0x1b, 0x3d, 0xaf, 0xfb, 0x28, 0x3e,
  0x10, 0xd9, 0xe2, 0x3d, 0x4f, 0x2c, 0xd9, 0xbd, 0x96, 0x10, 0x2a, 0x3e,
  0xe9, 0x60, 0xc6, 0x3c, 0xa3, 0x55, 0x9b, 0xbd, 0x2f, 0xe1, 0xa8, 0x3d,
  0x7b, 0x62, 0x30, 0xbe, 0xea, 0x10, 0x35, 0xbe, 0x4b, 0x8e, 0x0b, 0x3e,
  0x51, 0x51, 0xcb, 0xbd, 0x4c, 0x1e, 0x63, 0x3e, 0x7b, 0xd2, 0x0d, 0x3e,
  0x24, 0xdb, 0xcb, 0x3d, 0x95, 0x60, 0x57, 0x3e, 0x1d, 0x79, 0x6e, 0x3d,
  0xcf, 0xa2, 0xca, 0x3d, 0xd9, 0x08, 0xa3, 0x3d, 0x9d, 0xdd, 0xec, 0x3d,
  0x70, 0xe6, 0x32, 0x3e, 0x5b, 0x47, 0xef, 0xbd, 0x6f, 0x58, 0xd2, 0xbd,
  0x7c, 0x08, 0x7b, 0xbe, 0xa1, 0x34, 0x39, 0x3d, 0xb7, 0xcd, 0x7b, 0x3d,
  0x18, 0x86, 0x49, 0xbe, 0x36, 0x4b, 0x44, 0xbd, 0x03, 0x54, 0x0c, 0xbd,
  0xaf, 0xab, 0x89, 0x3d, 0xa6, 0x6b, 0x8d, 0xbc, 0x2a, 0x5c, 0xf4, 0xbd,
  0x53, 0x6e, 0x38, 0x3d, 0x14, 0x9b, 0x80, 0xbd, 0x3d, 0xfa, 0x8d, 0x3d,
  0x09, 0xa6, 0xe0, 0xbd, 0x3d, 0x61, 0xf4, 0xbd, 0xf2, 0x79, 0xee, 0xbd,
  0x80, 0x35, 0x86, 0x3d, 0x5d, 0x96, 0x24, 0xbe, 0x07, 0x8c, 0x02, 0x3e,
  0xa4, 0x76, 0x1b, 0xbd, 0xd5, 0xe3, 0x72, 0xbd, 0xa4, 0xc5, 0xab, 0xbd,
  0x9a, 0xfd, 0xe0, 0x3d, 0x8d, 0x25, 0x1b, 0x3e, 0xde, 0xbe, 0x22, 0xbe,
  0xc9, 0xf9, 0x61, 0x3d, 0x37, 0xe9, 0xbd, 0x3d, 0x77, 0x44, 0x87, 0x3d,
  0x92, 0x1b, 0x06, 0x3d, 0xcd, 0x9d, 0x1f, 0xbe, 0xda, 0xe3, 0xad, 0x3d,
  0x6b, 0x55, 0xa3, 0xbd, 0x23, 0x00, 0x44, 0xbd, 0x22, 0x4e, 0x8e, 0x3d,
  0xd3, 0x7a, 0x15, 0x3e, 0xfb, 0xc4, 0x9b, 0x3c, 0xf7, 0x2f, 0x8c, 0xbd,
  0xd1, 0x2d, 0x8b, 0xbd, 0x6d, 0xf7, 0x1c, 0x3d, 0xa5, 0xc7, 0x7c, 0xbd,
  0x39, 0x49, 0x82, 0x3d, 0x74, 0x06, 0xdc, 0x3d, 0x8e, 0xd2, 0x5c, 0xbd,
  0x9c, 0x6d, 0xae, 0x3d, 0xe5, 0x57, 0x06, 0x3e, 0x51, 0x0a, 0x43, 0xbd,
  0x51, 0x80, 0x05, 0xbe, 0xd1, 0x44, 0x88, 0xbd, 0xe5, 0x3e, 0xe4, 0xbb,
  0xde, 0x28, 0x5b, 0x3c, 0x41, 0x16, 0x37, 0xbe, 0x10, 0xf9, 0x1a, 0x3e,
  0x72, 0x41, 0x26, 0x3d, 0x6f, 0x7c, 0xbb, 0xbd, 0x96, 0xd2, 0x04, 0xbd,
  0x67, 0xfe, 0x91, 0x3d, 0xce, 0xed, 0xa4, 0x3d, 0x20, 0x86, 0x06, 0x3e,
  0x62, 0x59, 0xe6, 0xbd, 0x46, 0xf5, 0xb5, 0x3d, 0x7d, 0x59, 0x04, 0xbe,
  0x68, 0xcb, 0xee, 0xbc, 0xb7, 0x33, 0x24, 0x3e, 0xb7, 0xf4, 0x51, 0xbd,
  0x0b, 0xcf, 0xf1, 0x3d, 0x7d, 0xa2, 0x0c, 0xbe, 0x6d, 0x2a, 0x2f, 0xbe,
  0xf7, 0xfa, 0xb8, 0x3d, 0xde, 0x25, 0x10, 0x3e, 0xe3, 0xcf, 0x27, 0xbe,
  0xee, 0x4f, 0x80, 0xbd, 0xf5, 0xf0, 0x19, 0xbe, 0x51, 0x43, 0xaf, 0x3d,
  0xa2, 0x30, 0x1d, 0xbd, 0xd4, 0xac, 0x44, 0xbd, 0x26, 0xbe, 0x21, 0x3e,
  0x38, 0x6d, 0xd9, 0x3d, 0xf1, 0xfe, 0x96, 0x3d, 0x1c, 0x1d, 0xc5, 0x3c,
  0x53, 0x72, 0x41, 0xbe, 0xcf, 0x02, 0xfa, 0xbd, 0x22, 0x68, 0x0c, 0x3e,
  0x90, 0x6f, 0x15, 0x3d, 0x1d, 0x0f, 0x28, 0xbe, 0x96, 0x77, 0xa2, 0x3d,
  0xc4, 0xc7, 0xfd, 0x3d, 0x58, 0x8f, 0xbb, 0x3d, 0x73, 0xf9, 0xfe, 0xbd,
  0xf3, 0x11, 0xc3, 0x3d, 0x22, 0x05, 0x4a, 0xbe, 0x06, 0x16, 0x8d, 0xbc,
  0xcd, 0xa0, 0x92, 0x3d, 0x76, 0x15, 0x6d, 0x3c, 0xb8, 0xeb, 0x44, 0x3c,
  0xc5, 0x54, 0x3b, 0xbe, 0xd0, 0x31, 0xd7, 0x3d, 0x9b, 0xaf, 0xb2, 0xbc,
  0xb6, 0x40, 0x6d, 0x3d, 0x6e, 0x1a, 0xbe, 0x3c, 0xfa, 0x07, 0x64, 0x3e,
  0xc3, 0x57, 0x39, 0x3e, 0x54, 0xa2, 0x70, 0x3c, 0xfb, 0xb7, 0xab, 0xbc,
  0xbe, 0x87, 0x80, 0x3d, 0x6b, 0xcd, 0x29, 0xbd, 0xcc, 0xe2, 0x0a, 0xbe,
  0xa7, 0x49, 0xbd, 0xbd, 0xe0, 0xc7, 0x25, 0x3d, 0x56, 0x6f, 0x24, 0x3d,
  0x92, 0xf2, 0xe7, 0xbb, 0x9d, 0xb5, 0x45, 0x3e, 0x93, 0x89, 0x12, 0xbe,
  0xb0, 0x21, 0x3e, 0x3d, 0xa2, 0xb6, 0xb8, 0xbd, 0x13, 0x16, 0x8c, 0xbd,
  0xb8, 0x0a, 0x88, 0xbd, 0x74, 0xb1, 0x87, 0xbd, 0x5a, 0xea, 0x71, 0xbd,
  0x4b, 0xd0, 0x5e, 0x3c, 0x27, 0x96, 0xaa, 0x3d, 0x60, 0xcd, 0x2d, 0xbc,
  0x0b, 0x04, 0x38, 0xbe, 0x06, 0x06, 0x18, 0xbe, 0xe7, 0xeb, 0x1b, 0x3d,
  0xf4, 0xf0, 0xd7, 0xbd, 0x5b, 0x31, 0xc6, 0x3d, 0x0a, 0x40, 0x6f, 0xbd,
  0x10, 0x36, 0xc8, 0xbd, 0x6f, 0x79, 0x1e, 0xbd, 0x9e, 0xa4, 0x87, 0x3d,
  0x04, 0x19, 0x09, 0x3e, 0xe0, 0xd3, 0xcd, 0x3d, 0x01, 0xde, 0xe2, 0x3d,
  0x02, 0x84, 0x0c, 0x3e, 0x77, 0xa0, 0xde, 0x3d, 0x66, 0xf9, 0x0f, 0xbd,
  0x3d, 0xf7, 0x20, 0x3e, 0xa4, 0x88, 0x3f, 0x3e, 0x80, 0xf5, 0x85, 0xbd,
  0xf4, 0x45, 0x0b, 0x3e, 0xd9, 0x2f, 0x7b, 0xbd, 0xf5, 0xcd, 0x0c, 0xbe,
  0x08, 0xb9, 0x39, 0x3e, 0x0c, 0x90, 0x1d, 0xbe, 0x4c, 0x12, 0xbb, 0xbc,
  0xaf, 0x17, 0xec, 0xbd, 0x0a, 0xa6, 0xc5, 0x3d, 0x81, 0xae, 0x06, 0xbe,
  0x26, 0xd9, 0x31, 0xbe, 0xe3, 0x8b, 0x20, 0xbe, 0xad, 0x22, 0x6e, 0xbd,
  0x15, 0xd5, 0x95, 0xbb, 0x2e, 0x0b, 0x0e, 0xbe, 0x00, 0x66, 0x42, 0xbe,
  0x7f, 0x6e, 0x10, 0x3d, 0x4b, 0xe0, 0x03, 0x3e, 0x5d, 0x63, 0xdc, 0x3d,
  0xce, 0x16, 0x06, 0x3d, 0xd7, 0xd6, 0x1e, 0xbe, 0xff, 0xa7, 0xfa, 0xbd,
  0x1b, 0x2d, 0x01, 0xbe, 0x52, 0xa8, 0x19, 0x3d, 0x5d, 0x48, 0x13, 0x3e,
  0xc6, 0x45, 0x2a, 0x3d, 0x26, 0x64, 0x21, 0x3e, 0xda, 0x25, 0xa5, 0x3d,
  0x9a, 0xbc, 0x1a, 0x3e, 0x33, 0x8c, 0xef, 0x3d, 0xaa, 0xa9, 0x95, 0xbc,
  0x58, 0x3e, 0x31, 0xbe, 0xa2, 0x9b, 0x22, 0xbe, 0x31, 0x4a, 0x10, 0x3e,
  0x3e, 0xff, 0xff, 0xff, 0x04, 0x00, 0x00, 0x00, 0x10, 0x00, 0x00, 0x00,
  0x4e, 0x2f, 0x40, 0xbd, 0xfb, 0x83, 0x1f, 0x3e, 0xf1, 0x16, 0x8b, 0xbb,
  0x24, 0x8b, 0xf8, 0xbd, 0x5a, 0xff, 0xff, 0xff, 0x04, 0x00, 0x00, 0x00,
  0x08, 0x00, 0x00, 0x00, 0xe2, 0x01, 0x97, 0x3c, 0xe6, 0x01, 0x97, 0xbc,
  0x9c, 0xfb, 0xff, 0xff, 0xa0, 0xfb, 0xff, 0xff, 0x0f, 0x00, 0x00, 0x00,
  0x4d, 0x4c, 0x49, 0x52, 0x20, 0x43, 0x6f, 0x6e, 0x76, 0x65, 0x72, 0x74,
  0x65, 0x64, 0x2e, 0x00, 0x01, 0x00, 0x00, 0x00, 0x14, 0x00, 0x00, 0x00,
  0x00, 0x00, 0x0e, 0x00, 0x18, 0x00, 0x14, 0x00, 0x10, 0x00, 0x0c, 0x00,
  0x08, 0x00, 0x04, 0x00, 0x0e, 0x00, 0x00, 0x00, 0x14, 0x00, 0x00, 0x00,
  0x1c, 0x00, 0x00, 0x00, 0xec, 0x00, 0x00, 0x00, 0xf0, 0x00, 0x00, 0x00,
  0xf4, 0x00, 0x00, 0x00, 0x04, 0x00, 0x00, 0x00, 0x6d, 0x61, 0x69, 0x6e,
  0x00, 0x00, 0x00, 0x00, 0x03, 0x00, 0x00, 0x00, 0x94, 0x00, 0x00, 0x00,
  0x50, 0x00, 0x00, 0x00, 0x14, 0x00, 0x00, 0x00, 0x00, 0x00, 0x0e, 0x00,
  0x1a, 0x00, 0x14, 0x00, 0x10, 0x00, 0x0c, 0x00, 0x0b, 0x00, 0x04, 0x00,
  0x0e, 0x00, 0x00, 0x00, 0x1c, 0x00, 0x00, 0x00, 0x00, 0x00, 0x00, 0x09,
  0x1c, 0x00, 0x00, 0x00, 0x20, 0x00, 0x00, 0x00, 0x01, 0x00, 0x00, 0x00,
  0x00, 0x00, 0x06, 0x00, 0x08, 0x00, 0x04, 0x00, 0x06, 0x00, 0x00, 0x00,
  0x00, 0x00, 0x80, 0x3f, 0x01, 0x00, 0x00, 0x00, 0x07, 0x00, 0x00, 0x00,
  0x01, 0x00, 0x00, 0x00, 0x06, 0x00, 0x00, 0x00, 0xce, 0xff, 0xff, 0xff,
  0x10, 0x00, 0x00, 0x00, 0x00, 0x00, 0x00, 0x08, 0x0c, 0x00, 0x00, 0x00,
  0x10, 0x00, 0x00, 0x00, 0x60, 0xfc, 0xff, 0xff, 0x01, 0x00, 0x00, 0x00,
  0x06, 0x00, 0x00, 0x00, 0x03, 0x00, 0x00, 0x00, 0x05, 0x00, 0x00, 0x00,
  0x04, 0x00, 0x00, 0x00, 0x01, 0x00, 0x00, 0x00, 0x00, 0x00, 0x0e, 0x00,
  0x16, 0x00, 0x00, 0x00, 0x10, 0x00, 0x0c, 0x00, 0x0b, 0x00, 0x04, 0x00,
  0x0e, 0x00, 0x00, 0x00, 0x18, 0x00, 0x00, 0x00, 0x00, 0x00, 0x00, 0x08,
  0x18, 0x00, 0x00, 0x00, 0x1c, 0x00, 0x00, 0x00, 0x00, 0x00, 0x06, 0x00,
  0x08, 0x00, 0x07, 0x00, 0x06, 0x00, 0x00, 0x00, 0x00, 0x00, 0x00, 0x01,
  0x01, 0x00, 0x00, 0x00, 0x05, 0x00, 0x00, 0x00, 0x03, 0x00, 0x00, 0x00,
  0x00, 0x00, 0x00, 0x00, 0x03, 0x00, 0x00, 0x00, 0x02, 0x00, 0x00, 0x00,
  0x01, 0x00, 0x00, 0x00, 0x07, 0x00, 0x00, 0x00, 0x01, 0x00, 0x00, 0x00,
  0x00, 0x00, 0x00, 0x00, 0x08, 0x00, 0x00, 0x00, 0xfc, 0x02, 0x00, 0x00,
  0x88, 0x02, 0x00, 0x00, 0x14, 0x02, 0x00, 0x00, 0xc4, 0x01, 0x00, 0x00,
  0x74, 0x01, 0x00, 0x00, 0xdc, 0x00, 0x00, 0x00, 0x60, 0x00, 0x00, 0x00,
  0x04, 0x00, 0x00, 0x00, 0x3a, 0xfd, 0xff, 0xff, 0x00, 0x00, 0x00, 0x01,
  0x14, 0x00, 0x00, 0x00, 0x1c, 0x00, 0x00, 0x00, 0x1c, 0x00, 0x00, 0x00,
  0x08, 0x00, 0x00, 0x00, 0x34, 0x00, 0x00, 0x00, 0x02, 0x00, 0x00, 0x00,
  0xff, 0xff, 0xff, 0xff, 0x02, 0x00, 0x00, 0x00, 0x24, 0xfd, 0xff, 0xff,
  0x19, 0x00, 0x00, 0x00, 0x53, 0x74, 0x61, 0x74, 0x65, 0x66, 0x75, 0x6c,
  0x50, 0x61, 0x72, 0x74, 0x69, 0x74, 0x69, 0x6f, 0x6e, 0x65, 0x64, 0x43,
  0x61, 0x6c, 0x6c, 0x3a, 0x30, 0x00, 0x00, 0x00, 0x02, 0x00, 0x00, 0x00,
  0x01, 0x00, 0x00, 0x00, 0x02, 0x00, 0x00, 0x00, 0x92, 0xfd, 0xff, 0xff,
  0x00, 0x00, 0x00, 0x01, 0x14, 0x00, 0x00, 0x00, 0x1c, 0x00, 0x00, 0x00,
  0x1c, 0x00, 0x00, 0x00, 0x07, 0x00, 0x00, 0x00, 0x54, 0x00, 0x00, 0x00,
  0x02, 0x00, 0x00, 0x00, 0xff, 0xff, 0xff, 0xff, 0x02, 0x00, 0x00, 0x00,
  0x7c, 0xfd, 0xff, 0xff, 0x3a, 0x00, 0x00, 0x00, 0x73, 0x65, 0x71, 0x75,
  0x65, 0x6e, 0x74, 0x69, 0x61, 0x6c, 0x5f, 0x34, 0x2f, 0x64, 0x65, 0x6e,
  0x73, 0x65, 0x5f, 0x31, 0x32, 0x2f, 0x4d, 0x61, 0x74, 0x4d, 0x75, 0x6c,
  0x3b, 0x73, 0x65, 0x71, 0x75, 0x65, 0x6e, 0x74, 0x69, 0x61, 0x6c, 0x5f,
  0x34, 0x2f, 0x64, 0x65, 0x6e, 0x73, 0x65, 0x5f, 0x31, 0x32, 0x2f, 0x42,
  0x69, 0x61, 0x73, 0x41, 0x64, 0x64, 0x00, 0x00, 0x02, 0x00, 0x00, 0x00,
  0x01, 0x00, 0x00, 0x00, 0x02, 0x00, 0x00, 0x00, 0x0a, 0xfe, 0xff, 0xff,
  0x00, 0x00, 0x00, 0x01, 0x14, 0x00, 0x00, 0x00, 0x1c, 0x00, 0x00, 0x00,
  0x1c, 0x00, 0x00, 0x00, 0x06, 0x00, 0x00, 0x00, 0x70, 0x00, 0x00, 0x00,
  0x02, 0x00, 0x00, 0x00, 0xff, 0xff, 0xff, 0xff, 0x04, 0x00, 0x00, 0x00,
  0xf4, 0xfd, 0xff, 0xff, 0x55, 0x00, 0x00, 0x00, 0x73, 0x65, 0x71, 0x75,
  0x65, 0x6e, 0x74, 0x69, 0x61, 0x6c, 0x5f, 0x34, 0x2f, 0x64, 0x65, 0x6e,
  0x73, 0x65, 0x5f, 0x31, 0x31, 0x2f, 0x4d, 0x61, 0x74, 0x4d, 0x75, 0x6c,
  0x3b, 0x73, 0x65, 0x71, 0x75, 0x65, 0x6e, 0x74, 0x69, 0x61, 0x6c, 0x5f,
  0x34, 0x2f, 0x64, 0x65, 0x6e, 0x73, 0x65, 0x5f, 0x31, 0x31, 0x2f, 0x52,
  0x65, 0x6c, 0x75, 0x3b, 0x73, 0x65, 0x71, 0x75, 0x65, 0x6e, 0x74, 0x69,
  0x61, 0x6c, 0x5f, 0x34, 0x2f, 0x64, 0x65, 0x6e, 0x73, 0x65, 0x5f, 0x31,
  0x31, 0x2f, 0x42, 0x69, 0x61, 0x73, 0x41, 0x64, 0x64, 0x00, 0x00, 0x00,
  0x02, 0x00, 0x00, 0x00, 0x01, 0x00, 0x00, 0x00, 0x04, 0x00, 0x00, 0x00,
  0x0e, 0xff, 0xff, 0xff, 0x00, 0x00, 0x00, 0x01, 0x10, 0x00, 0x00, 0x00,
  0x10, 0x00, 0x00, 0x00, 0x05, 0x00, 0x00, 0x00, 0x2c, 0x00, 0x00, 0x00,
  0x78, 0xfe, 0xff, 0xff, 0x1c, 0x00, 0x00, 0x00, 0x73, 0x65, 0x71, 0x75,
  0x65, 0x6e, 0x74, 0x69, 0x61, 0x6c, 0x5f, 0x34, 0x2f, 0x64, 0x65, 0x6e,
  0x73, 0x65, 0x5f, 0x31, 0x32, 0x2f, 0x4d, 0x61, 0x74, 0x4d, 0x75, 0x6c,
  0x00, 0x00, 0x00, 0x00, 0x02, 0x00, 0x00, 0x00, 0x02, 0x00, 0x00, 0x00,
  0x04, 0x00, 0x00, 0x00, 0x5a, 0xff, 0xff, 0xff, 0x00, 0x00, 0x00, 0x01,
  0x10, 0x00, 0x00, 0x00, 0x10, 0x00, 0x00, 0x00, 0x04, 0x00, 0x00, 0x00,
  0x2c, 0x00, 0x00, 0x00, 0xc4, 0xfe, 0xff, 0xff, 0x1c, 0x00, 0x00, 0x00,
  0x73, 0x65, 0x71, 0x75, 0x65, 0x6e, 0x74, 0x69, 0x61, 0x6c, 0x5f, 0x34,
  0x2f, 0x64, 0x65, 0x6e, 0x73, 0x65, 0x5f, 0x31, 0x31, 0x2f, 0x4d, 0x61,
  0x74, 0x4d, 0x75, 0x6c, 0x00, 0x00, 0x00, 0x00, 0x02, 0x00, 0x00, 0x00,
  0x04, 0x00, 0x00, 0x00, 0xc8, 0x00, 0x00, 0x00, 0xa6, 0xff, 0xff, 0xff,
  0x00, 0x00, 0x00, 0x01, 0x10, 0x00, 0x00, 0x00, 0x10, 0x00, 0x00, 0x00,
  0x03, 0x00, 0x00, 0x00, 0x3c, 0x00, 0x00, 0x00, 0x10, 0xff, 0xff, 0xff,
  0x2c, 0x00, 0x00, 0x00, 0x73, 0x65, 0x71, 0x75, 0x65, 0x6e, 0x74, 0x69,
  0x61, 0x6c, 0x5f, 0x34, 0x2f, 0x64, 0x65, 0x6e, 0x73, 0x65, 0x5f, 0x31,
  0x31, 0x2f, 0x42, 0x69, 0x61, 0x73, 0x41, 0x64, 0x64, 0x2f, 0x52, 0x65,
  0x61, 0x64, 0x56, 0x61, 0x72, 0x69, 0x61, 0x62, 0x6c, 0x65, 0x4f, 0x70,
  0x00, 0x00, 0x00, 0x00, 0x01, 0x00, 0x00, 0x00, 0x04, 0x00, 0x00, 0x00,
  0x00, 0x00, 0x16, 0x00, 0x18, 0x00, 0x14, 0x00, 0x00, 0x00, 0x10, 0x00,
  0x0c, 0x00, 0x08, 0x00, 0x00, 0x00, 0x00, 0x00, 0x00, 0x00, 0x07, 0x00,
  0x16, 0x00, 0x00, 0x00, 0x00, 0x00, 0x00, 0x01, 0x10, 0x00, 0x00, 0x00,
  0x10, 0x00, 0x00, 0x00, 0x02, 0x00, 0x00, 0x00, 0x3c, 0x00, 0x00, 0x00,
  0x80, 0xff, 0xff, 0xff, 0x2c, 0x00, 0x00, 0x00, 0x73, 0x65, 0x71, 0x75,
  0x65, 0x6e, 0x74, 0x69, 0x61, 0x6c, 0x5f, 0x34, 0x2f, 0x64, 0x65, 0x6e,
  0x73, 0x65, 0x5f, 0x31, 0x32, 0x2f, 0x42, 0x69, 0x61, 0x73, 0x41, 0x64,
  0x64, 0x2f, 0x52, 0x65, 0x61, 0x64, 0x56, 0x61, 0x72, 0x69, 0x61, 0x62,
  0x6c, 0x65, 0x4f, 0x70, 0x00, 0x00, 0x00, 0x00, 0x01, 0x00, 0x00, 0x00,
  0x02, 0x00, 0x00, 0x00, 0x00, 0x00, 0x16, 0x00, 0x1c, 0x00, 0x18, 0x00,
  0x00, 0x00, 0x14, 0x00, 0x10, 0x00, 0x0c, 0x00, 0x00, 0x00, 0x00, 0x00,
  0x08, 0x00, 0x07, 0x00, 0x16, 0x00, 0x00, 0x00, 0x00, 0x00, 0x00, 0x01,
  0x14, 0x00, 0x00, 0x00, 0x20, 0x00, 0x00, 0x00, 0x20, 0x00, 0x00, 0x00,
  0x01, 0x00, 0x00, 0x00, 0x40, 0x00, 0x00, 0x00, 0x02, 0x00, 0x00, 0x00,
  0xff, 0xff, 0xff, 0xff, 0xc8, 0x00, 0x00, 0x00, 0x04, 0x00, 0x04, 0x00,
  0x04, 0x00, 0x00, 0x00, 0x20, 0x00, 0x00, 0x00, 0x73, 0x65, 0x72, 0x76,
  0x69, 0x6e, 0x67, 0x5f, 0x64, 0x65, 0x66, 0x61, 0x75, 0x6c, 0x74, 0x5f,
  0x64, 0x65, 0x6e, 0x73, 0x65, 0x5f, 0x31, 0x31, 0x5f, 0x69, 0x6e, 0x70,
  0x75, 0x74, 0x3a, 0x30, 0x00, 0x00, 0x00, 0x00, 0x02, 0x00, 0x00, 0x00,
  0x01, 0x00, 0x00, 0x00, 0xc8, 0x00, 0x00, 0x00, 0x02, 0x00, 0x00, 0x00,
  0x20, 0x00, 0x00, 0x00, 0x04, 0x00, 0x00, 0x00, 0xf4, 0xff, 0xff, 0xff,
  0x19, 0x00, 0x00, 0x00, 0x00, 0x00, 0x00, 0x19, 0x0c, 0x00, 0x0c, 0x00,
  0x0b, 0x00, 0x00, 0x00, 0x00, 0x00, 0x04, 0x00, 0x0c, 0x00, 0x00, 0x00,
  0x09, 0x00, 0x00, 0x00, 0x00, 0x00, 0x00, 0x09 
};

const int g_model_len2 = 5000;




alignas(8) const unsigned char g_model[] = {
  0x1c, 0x00, 0x00, 0x00, 0x54, 0x46, 0x4c, 0x33, 0x14, 0x00, 0x20, 0x00,
  0x1c, 0x00, 0x18, 0x00, 0x14, 0x00, 0x10, 0x00, 0x0c, 0x00, 0x00, 0x00,
  0x08, 0x00, 0x04, 0x00, 0x14, 0x00, 0x00, 0x00, 0x1c, 0x00, 0x00, 0x00,
  0x94, 0x00, 0x00, 0x00, 0xec, 0x00, 0x00, 0x00, 0x98, 0x21, 0x00, 0x00,
  0xa8, 0x21, 0x00, 0x00, 0x10, 0x26, 0x00, 0x00, 0x03, 0x00, 0x00, 0x00,
  0x01, 0x00, 0x00, 0x00, 0x10, 0x00, 0x00, 0x00, 0x00, 0x00, 0x0a, 0x00,
  0x10, 0x00, 0x0c, 0x00, 0x08, 0x00, 0x04, 0x00, 0x0a, 0x00, 0x00, 0x00,
  0x0c, 0x00, 0x00, 0x00, 0x1c, 0x00, 0x00, 0x00, 0x38, 0x00, 0x00, 0x00,
  0x0f, 0x00, 0x00, 0x00, 0x73, 0x65, 0x72, 0x76, 0x69, 0x6e, 0x67, 0x5f,
  0x64, 0x65, 0x66, 0x61, 0x75, 0x6c, 0x74, 0x00, 0x01, 0x00, 0x00, 0x00,
  0x04, 0x00, 0x00, 0x00, 0x94, 0xff, 0xff, 0xff, 0x07, 0x00, 0x00, 0x00,
  0x04, 0x00, 0x00, 0x00, 0x07, 0x00, 0x00, 0x00, 0x64, 0x65, 0x6e, 0x73,
  0x65, 0x5f, 0x39, 0x00, 0x01, 0x00, 0x00, 0x00, 0x04, 0x00, 0x00, 0x00,
  0x4e, 0xde, 0xff, 0xff, 0x04, 0x00, 0x00, 0x00, 0x0d, 0x00, 0x00, 0x00,
  0x64, 0x65, 0x6e, 0x73, 0x65, 0x5f, 0x38, 0x5f, 0x69, 0x6e, 0x70, 0x75,
  0x74, 0x00, 0x00, 0x00, 0x02, 0x00, 0x00, 0x00, 0x34, 0x00, 0x00, 0x00,
  0x04, 0x00, 0x00, 0x00, 0xdc, 0xff, 0xff, 0xff, 0x0a, 0x00, 0x00, 0x00,
  0x04, 0x00, 0x00, 0x00, 0x13, 0x00, 0x00, 0x00, 0x43, 0x4f, 0x4e, 0x56,
  0x45, 0x52, 0x53, 0x49, 0x4f, 0x4e, 0x5f, 0x4d, 0x45, 0x54, 0x41, 0x44,
  0x41, 0x54, 0x41, 0x00, 0x08, 0x00, 0x0c, 0x00, 0x08, 0x00, 0x04, 0x00,
  0x08, 0x00, 0x00, 0x00, 0x09, 0x00, 0x00, 0x00, 0x04, 0x00, 0x00, 0x00,
  0x13, 0x00, 0x00, 0x00, 0x6d, 0x69, 0x6e, 0x5f, 0x72, 0x75, 0x6e, 0x74,
  0x69, 0x6d, 0x65, 0x5f, 0x76, 0x65, 0x72, 0x73, 0x69, 0x6f, 0x6e, 0x00,
  0x0b, 0x00, 0x00, 0x00, 0xa8, 0x20, 0x00, 0x00, 0xa0, 0x20, 0x00, 0x00,
  0x88, 0x20, 0x00, 0x00, 0x50, 0x20, 0x00, 0x00, 0x00, 0x01, 0x00, 0x00,
  0xa0, 0x00, 0x00, 0x00, 0x98, 0x00, 0x00, 0x00, 0x90, 0x00, 0x00, 0x00,
  0x88, 0x00, 0x00, 0x00, 0x68, 0x00, 0x00, 0x00, 0x04, 0x00, 0x00, 0x00,
  0xf6, 0xde, 0xff, 0xff, 0x04, 0x00, 0x00, 0x00, 0x54, 0x00, 0x00, 0x00,
  0x0c, 0x00, 0x00, 0x00, 0x08, 0x00, 0x0e, 0x00, 0x08, 0x00, 0x04, 0x00,
  0x08, 0x00, 0x00, 0x00, 0x10, 0x00, 0x00, 0x00, 0x24, 0x00, 0x00, 0x00,
  0x00, 0x00, 0x06, 0x00, 0x08, 0x00, 0x04, 0x00, 0x06, 0x00, 0x00, 0x00,
  0x04, 0x00, 0x00, 0x00, 0x00, 0x00, 0x00, 0x00, 0x00, 0x00, 0x0a, 0x00,
  0x10, 0x00, 0x0c, 0x00, 0x08, 0x00, 0x04, 0x00, 0x0a, 0x00, 0x00, 0x00,
  0x02, 0x00, 0x00, 0x00, 0x02, 0x00, 0x00, 0x00, 0x04, 0x00, 0x00, 0x00,
  0x06, 0x00, 0x00, 0x00, 0x32, 0x2e, 0x31, 0x31, 0x2e, 0x30, 0x00, 0x00,
  0x56, 0xdf, 0xff, 0xff, 0x04, 0x00, 0x00, 0x00, 0x10, 0x00, 0x00, 0x00,
  0x31, 0x2e, 0x35, 0x2e, 0x30, 0x00, 0x00, 0x00, 0x00, 0x00, 0x00, 0x00,
  0x00, 0x00, 0x00, 0x00, 0xb4, 0xdb, 0xff, 0xff, 0xb8, 0xdb, 0xff, 0xff,
  0xbc, 0xdb, 0xff, 0xff, 0x7e, 0xdf, 0xff, 0xff, 0x04, 0x00, 0x00, 0x00,
  0x50, 0x00, 0x00, 0x00, 0xbd, 0xe7, 0x4f, 0x3f, 0xc6, 0xa3, 0x54, 0x3f,
  0x1c, 0x0a, 0xc2, 0x3e, 0xe1, 0x1b, 0x0c, 0x3f, 0x21, 0x85, 0x2f, 0x3f,
  0x2a, 0x9a, 0x03, 0x3f, 0x82, 0x31, 0xa2, 0x3e, 0xc8, 0x7e, 0x15, 0xbe,
  0x67, 0x4c, 0x9f, 0x3d, 0x05, 0xe8, 0xce, 0xbe, 0x5a, 0x55, 0x3d, 0xbf,
  0x36, 0xc4, 0x1c, 0xbf, 0x94, 0x67, 0xee, 0xbe, 0xdd, 0x83, 0xf5, 0xbe,
  0xda, 0x5f, 0x42, 0xbf, 0xd1, 0x6a, 0x44, 0xbf, 0xf7, 0x5d, 0x45, 0xbf,
  0xa3, 0x02, 0x15, 0x3e, 0xf9, 0x24, 0xab, 0x3e, 0xe8, 0x3e, 0xee, 0x3e,
  0xda, 0xdf, 0xff, 0xff, 0x04, 0x00, 0x00, 0x00, 0x40, 0x1f, 0x00, 0x00,
  0x1c, 0x2a, 0x4e, 0x3d, 0xb0, 0x2a, 0xd3, 0x3b, 0x21, 0x7d, 0xa2, 0x3d,
  0x6c, 0x72, 0xc6, 0xbc, 0xa2, 0x95, 0x01, 0xbe, 0x30, 0x56, 0x69, 0xbd,
  0x65, 0x83, 0x67, 0xbd, 0x45, 0xf4, 0x9e, 0xbd, 0xb8, 0xe3, 0x80, 0xbc,
  0x84, 0xd7, 0x89, 0xbd, 0xce, 0xcf, 0x3d, 0x3d, 0xbf, 0x17, 0x0f, 0x3e,
  0xee, 0x0d, 0x14, 0x3e, 0x31, 0x86, 0x80, 0x3d, 0x00, 0xb8, 0xb1, 0x3d,
  0xc8, 0x9c, 0x8f, 0x3d, 0x4f, 0xdb, 0xfe, 0xbd, 0x75, 0xb4, 0x1a, 0xbe,
  0xc5, 0xea, 0x3e, 0xbc, 0xcc, 0xba, 0x1b, 0x3e, 0x30, 0xee, 0x26, 0x3e,
  0x30, 0xeb, 0x26, 0xbd, 0xc0, 0x5b, 0x37, 0x3c, 0xce, 0xd8, 0x04, 0xbe,
  0x0c, 0x8f, 0x49, 0xbe, 0xe7, 0xd3, 0x08, 0x3e, 0xb2, 0x9e, 0x06, 0x3e,
  0x9e, 0x8d, 0xf0, 0x3d, 0x30, 0x40, 0x2a, 0xbe, 0x5e, 0x85, 0x24, 0xbe,
  0xe0, 0x9a, 0xdd, 0xbd, 0xc6, 0x93, 0x43, 0xbc, 0xcd, 0x77, 0xf1, 0x3c,
  0xb7, 0x1e, 0x02, 0x3e, 0x70, 0x1a, 0xf9, 0xbd, 0xc7, 0x59, 0xe7, 0x3d,
  0xe7, 0x85, 0x27, 0xbe, 0xd7, 0xaf, 0x2e, 0xbe, 0xff, 0x31, 0x92, 0xbd,
  0xc8, 0x58, 0xaf, 0xbd, 0xab, 0xad, 0x22, 0xbc, 0x2a, 0x4a, 0x75, 0xb9,
  0x40, 0x8d, 0xe3, 0x3d, 0x33, 0xd2, 0x1c, 0x3e, 0x91, 0x67, 0xce, 0x3d,
  0xeb, 0xd7, 0x72, 0xbd, 0x50, 0xc4, 0x1f, 0x3e, 0x4b, 0x3c, 0xd8, 0xbc,
  0x8b, 0x87, 0xe1, 0x3d, 0xe8, 0xf9, 0xda, 0xbd, 0x19, 0x8d, 0x0b, 0x3e,
  0x29, 0x5a, 0xbc, 0x3d, 0x4b, 0xa4, 0x38, 0xbe, 0x38, 0xbb, 0x0b, 0x3d,
  0x19, 0x45, 0x42, 0x3c, 0xa9, 0x14, 0x49, 0xbe, 0xff, 0xe8, 0x80, 0x3d,
  0xe3, 0x66, 0x23, 0x3d, 0xdf, 0xa6, 0xcd, 0xbc, 0x7d, 0xe1, 0xa7, 0x3c,
  0x83, 0xb7, 0xe1, 0x3d, 0x5a, 0x04, 0x01, 0x3e, 0xf0, 0xe6, 0xea, 0x3d,
  0x19, 0x63, 0xc9, 0x3d, 0xb5, 0x5b, 0x0c, 0xbe, 0xef, 0x9b, 0x3e, 0xbe,
  0xbd, 0xe1, 0xf7, 0xbb, 0x02, 0x25, 0xc5, 0x3c, 0x3a, 0xb8, 0x4c, 0xbe,
  0xba, 0x28, 0x12, 0x3e, 0xbe, 0xad, 0xbd, 0x3c, 0xbe, 0x46, 0xe6, 0x3d,
  0x54, 0xe1, 0xb3, 0xbc, 0x26, 0x6f, 0x12, 0xbe, 0xb3, 0x7c, 0xeb, 0xbc,
  0xcc, 0x67, 0x57, 0xbd, 0x54, 0xf3, 0x42, 0xbc, 0xba, 0x0a, 0xab, 0x3d,
  0x79, 0xa5, 0xd7, 0xbd, 0x36, 0x2d, 0xe7, 0xbd, 0x86, 0xc6, 0xdc, 0x3d,
  0x03, 0x10, 0xad, 0xbb, 0xb0, 0xc9, 0x96, 0x3d, 0x2e, 0x62, 0xef, 0x3c,
  0xe1, 0xe8, 0xb2, 0x3d, 0x99, 0x77, 0x0c, 0xbe, 0xc2, 0x36, 0xe6, 0x3c,
  0xa7, 0xdb, 0xed, 0xbd, 0xc5, 0x09, 0xb9, 0xbb, 0xc3, 0xe9, 0x51, 0xbe,
  0x61, 0xfd, 0x9a, 0x3d, 0x09, 0x42, 0xcf, 0x3d, 0xc2, 0x3d, 0xac, 0x3c,
  0x72, 0x5e, 0x0f, 0xbe, 0x00, 0x62, 0x0b, 0x3e, 0x37, 0x75, 0x8f, 0x3d,
  0x68, 0x44, 0xdc, 0x3d, 0x9d, 0x34, 0xec, 0x3d, 0xe9, 0x02, 0xa0, 0xbd,
  0x82, 0x60, 0x33, 0x3c, 0xc5, 0x11, 0x42, 0xbe, 0xda, 0xc5, 0x19, 0x3e,
  0x33, 0xa7, 0x2b, 0xbe, 0xdc, 0x0d, 0xb0, 0xbc, 0x56, 0xec, 0x05, 0x3e,
  0xe0, 0xa0, 0xe8, 0xbd, 0xf5, 0xe1, 0x39, 0x3d, 0xf1, 0x70, 0x0e, 0x3e,
  0x1e, 0xce, 0x26, 0xbd, 0x49, 0xd8, 0xef, 0x3d, 0xe6, 0xd5, 0x92, 0xbc,
  0x9d, 0x3a, 0x53, 0xbe, 0x57, 0xf3, 0x2e, 0x3a, 0x94, 0x3f, 0x9f, 0xbc,
  0xe9, 0x0c, 0xe4, 0xbd, 0xc2, 0xee, 0x6e, 0x3d, 0x45, 0x35, 0x19, 0xbd,
  0x0e, 0xc0, 0x26, 0x3e, 0xf1, 0xac, 0x26, 0x3e, 0x7e, 0xb9, 0xee, 0x3d,
  0x7e, 0x59, 0x76, 0x3d, 0x78, 0xf3, 0x58, 0xbb, 0x6b, 0x90, 0x18, 0xbe,
  0x96, 0x57, 0xd5, 0xbd, 0x21, 0x2c, 0x82, 0x3d, 0xd7, 0x59, 0x2e, 0xbe,
  0x5f, 0x88, 0x83, 0xbd, 0x71, 0x02, 0xec, 0xbd, 0x3c, 0x31, 0x11, 0x3e,
  0x96, 0x7a, 0x48, 0x3c, 0xdd, 0x64, 0x1a, 0xbe, 0x35, 0x07, 0x30, 0x3e,
  0x66, 0x48, 0x9c, 0x3d, 0x72, 0xab, 0x02, 0xbe, 0xbd, 0x61, 0xa6, 0xbb,
  0xa6, 0xc5, 0x55, 0x3d, 0xf2, 0x29, 0xa2, 0x3d, 0x52, 0x63, 0x01, 0xbe,
  0x20, 0xb9, 0x98, 0x3d, 0x98, 0x70, 0xa6, 0xbd, 0xf4, 0x40, 0xd5, 0x3d,
  0x34, 0x21, 0x5a, 0x3d, 0x9f, 0x71, 0xdf, 0x3d, 0x71, 0x2c, 0xc6, 0xbc,
  0x2d, 0xe0, 0x75, 0x3d, 0x86, 0xa1, 0xe7, 0x3d, 0x08, 0xa2, 0x87, 0xbd,
  0xab, 0xd9, 0x5c, 0x3c, 0xe1, 0xc0, 0xa9, 0xbd, 0x76, 0x09, 0xe5, 0xbd,
  0x75, 0xfd, 0xd3, 0x3d, 0xb4, 0x2d, 0xf9, 0xbb, 0xbf, 0x79, 0xd0, 0xbd,
  0xfd, 0xb0, 0x2c, 0xbd, 0xba, 0x5d, 0x9c, 0x3c, 0xc9, 0x43, 0x1f, 0xbe,
  0x47, 0x1f, 0xc4, 0x3d, 0x8a, 0x24, 0xc8, 0x3c, 0xbc, 0xf1, 0x10, 0xbe,
  0x44, 0xd4, 0x1d, 0xbe, 0x6e, 0xea, 0xc0, 0x3c, 0x10, 0x91, 0xdd, 0xbc,
  0xde, 0xa0, 0xd8, 0xbd, 0xc6, 0xea, 0x8a, 0x3d, 0xc7, 0x33, 0x57, 0x3d,
  0x5f, 0x6d, 0xd9, 0xbd, 0x50, 0x24, 0x6c, 0xbd, 0xf5, 0x92, 0xe6, 0x3d,
  0x08, 0x82, 0x68, 0xbd, 0x6b, 0xd0, 0x4b, 0x3e, 0x58, 0xb2, 0x45, 0x3e,
  0x62, 0x5e, 0x20, 0x3e, 0x0e, 0xb2, 0x62, 0xbd, 0x0a, 0x8d, 0x67, 0xbd,
  0x0c, 0x88, 0xf4, 0x3d, 0x93, 0xaf, 0xc8, 0x3d, 0x36, 0x7d, 0x3a, 0xbd,
  0xa5, 0x0e, 0xdd, 0xbd, 0xb2, 0x2c, 0xfe, 0x3d, 0x99, 0xa1, 0x05, 0xbd,
  0xfc, 0xbe, 0xac, 0x3c, 0x0b, 0x07, 0x2f, 0x3e, 0x2e, 0x6b, 0x3a, 0xbe,
  0x10, 0x1b, 0x17, 0xbe, 0x33, 0xc9, 0x9e, 0x3c, 0x52, 0x0e, 0x3a, 0xbe,
  0x4d, 0x5b, 0x9d, 0x3d, 0x1e, 0x32, 0x04, 0x3d, 0xbf, 0x84, 0x89, 0xbd,
  0xdc, 0x2a, 0x63, 0x3d, 0x7d, 0xab, 0x02, 0x3e, 0x49, 0x61, 0xc7, 0x3d,
  0x80, 0xbe, 0xa5, 0x3d, 0x1b, 0x1b, 0xc7, 0xbb, 0x96, 0xa8, 0xcf, 0xbd,
  0x0c, 0x07, 0x18, 0xbe, 0xed, 0x92, 0x26, 0xbd, 0x17, 0x14, 0x01, 0x3e,
  0xa2, 0x2c, 0x96, 0xbd, 0x13, 0xde, 0x8a, 0x3c, 0x7c, 0x21, 0x32, 0xbd,
  0x99, 0xff, 0x00, 0xbd, 0x9e, 0xf5, 0x5d, 0xbc, 0x82, 0x1f, 0xfc, 0x3d,
  0xb3, 0xf2, 0x7f, 0x3c, 0x0e, 0x11, 0xf5, 0xbc, 0x19, 0xd6, 0x54, 0x3d,
  0x6d, 0x1d, 0x0d, 0x3d, 0xaf, 0xd1, 0x6e, 0x3d, 0x7f, 0xcc, 0x09, 0xbe,
  0x54, 0x0a, 0xca, 0x3c, 0xcc, 0x1f, 0xba, 0xbd, 0xa3, 0x1e, 0xfa, 0xbc,
  0xc9, 0x68, 0x5a, 0x3d, 0x50, 0xa5, 0x53, 0xbe, 0xb0, 0x86, 0xc9, 0xbd,
  0xff, 0x1b, 0xd1, 0x3c, 0x35, 0xa1, 0x0e, 0x3e, 0xad, 0x6b, 0x2f, 0x3e,
  0x72, 0x7a, 0xa6, 0x3d, 0x33, 0x58, 0x18, 0xbd, 0x1a, 0x6e, 0x94, 0x3b,
  0x53, 0x5e, 0x95, 0xbd, 0xc1, 0x13, 0xcd, 0xbd, 0xf7, 0xaa, 0x3f, 0x3e,
  0xa0, 0x1f, 0x7b, 0x3d, 0xef, 0xcd, 0x08, 0xbe, 0xab, 0x10, 0x03, 0xbe,
  0x4b, 0xab, 0x96, 0xbd, 0x39, 0x31, 0xbd, 0x3d, 0xba, 0x0c, 0xbe, 0x3d,
  0xb2, 0x7b, 0x4c, 0x3e, 0x55, 0xa0, 0xca, 0xbd, 0xf3, 0x19, 0xb7, 0xbc,
  0xc4, 0xfa, 0x0b, 0x3e, 0x27, 0x34, 0x84, 0xbd, 0x64, 0x29, 0x2c, 0x3e,
  0x64, 0xb8, 0xde, 0xbc, 0x68, 0x98, 0x00, 0x3e, 0x53, 0xe8, 0x57, 0x3e,
  0x1f, 0xf3, 0x27, 0xbe, 0x03, 0x98, 0xa3, 0xbc, 0xfc, 0x2f, 0xd9, 0xbc,
  0x0d, 0x23, 0x1d, 0xbe, 0xb1, 0xb8, 0x34, 0xbe, 0xa9, 0xf5, 0x31, 0xbe,
  0xf2, 0x73, 0x1c, 0xbe, 0xb6, 0x63, 0x52, 0xbc, 0x27, 0xc0, 0x71, 0xbd,
  0x85, 0x21, 0x04, 0xbd, 0x24, 0x36, 0x8d, 0x3d, 0x8b, 0xe0, 0x4c, 0xbd,
  0x53, 0xaf, 0x2c, 0x3e, 0x8e, 0x44, 0x37, 0xbd, 0xe1, 0xd1, 0x25, 0xbe,
  0x65, 0x03, 0x5d, 0xbd, 0xb3, 0x44, 0xc5, 0x3d, 0xe3, 0x92, 0x71, 0xbd,
  0x2c, 0xda, 0x9e, 0x3d, 0xad, 0xb1, 0xdf, 0xbd, 0xaa, 0x3b, 0xb6, 0x3d,
  0x6a, 0x97, 0xbc, 0x3d, 0xc9, 0x1a, 0x2a, 0x3e, 0xd6, 0x2a, 0x04, 0x3e,
  0x6b, 0xf4, 0xf9, 0x3c, 0x2f, 0x83, 0x04, 0xbe, 0x80, 0x53, 0xa1, 0x3d,
  0xe7, 0xb8, 0xb1, 0x3b, 0x6e, 0x53, 0xa9, 0xbc, 0x05, 0x92, 0xb6, 0x3d,
  0x93, 0x88, 0x2c, 0xbd, 0x2b, 0xd2, 0x55, 0xbc, 0x52, 0xc0, 0x16, 0x3e,
  0xb1, 0x20, 0x45, 0xbd, 0x1c, 0x38, 0x48, 0xbc, 0x3a, 0xe9, 0xf6, 0xbd,
  0x54, 0xc8, 0x30, 0x3b, 0xeb, 0x20, 0xca, 0xbd, 0xec, 0xb9, 0x5a, 0x3d,
  0xdb, 0x35, 0x51, 0x3c, 0xba, 0xc2, 0x42, 0xbc, 0x35, 0x6a, 0x43, 0x3c,
  0x43, 0x27, 0x8e, 0xbd, 0x77, 0x4a, 0xc7, 0xbd, 0x1e, 0x77, 0x16, 0xbe,
  0xd9, 0x9f, 0x82, 0x3d, 0x4d, 0x85, 0xd1, 0x3c, 0x47, 0x0c, 0xac, 0xbd,
  0xe4, 0x48, 0x66, 0x3c, 0x51, 0x96, 0xbb, 0x3d, 0x7e, 0xa0, 0xf7, 0x3d,
  0x5b, 0x05, 0x00, 0xbe, 0x1e, 0x25, 0xda, 0x3b, 0x10, 0x34, 0x9d, 0xbd,
  0xbc, 0x5e, 0x43, 0x3c, 0x83, 0xe0, 0x80, 0x3d, 0x9f, 0x53, 0xb2, 0x3d,
  0xa6, 0x43, 0x17, 0xbd, 0xed, 0x35, 0x24, 0xbe, 0x22, 0x20, 0x0d, 0x3c,
  0xe4, 0x19, 0x22, 0x3c, 0xda, 0xb4, 0x12, 0x3e, 0x4e, 0xff, 0xcb, 0x3d,
  0x1a, 0x84, 0x21, 0x3e, 0x4a, 0xd9, 0xde, 0xbd, 0x04, 0xbb, 0x17, 0xbe,
  0x0c, 0x4f, 0xa0, 0xbd, 0xa6, 0x3b, 0xc5, 0xbc, 0x17, 0x1e, 0x11, 0x3e,
  0x39, 0xbe, 0x9f, 0x3b, 0xcd, 0x98, 0x5f, 0x3d, 0xb5, 0x6d, 0x0b, 0x3e,
  0x71, 0xf7, 0x26, 0x3d, 0xe6, 0xe9, 0x11, 0xbd, 0xe0, 0x97, 0x03, 0x3e,
  0x1c, 0xcb, 0xb5, 0xbd, 0xd7, 0x73, 0xc4, 0xbd, 0x99, 0x83, 0xc4, 0xbd,
  0xf7, 0xce, 0x98, 0xbd, 0x3f, 0xe7, 0xc0, 0xbd, 0x4c, 0x88, 0x13, 0x3d,
  0xd0, 0x62, 0xe4, 0x3d, 0x79, 0xcc, 0xa3, 0xbc, 0x83, 0x02, 0x9d, 0xbd,
  0xfb, 0x4d, 0xe8, 0x3d, 0x49, 0xd7, 0x42, 0x3d, 0xad, 0x3f, 0x30, 0xbc,
  0xb5, 0x59, 0xcd, 0xbc, 0x5a, 0x54, 0x92, 0xbd, 0xdb, 0xbc, 0x07, 0xbe,
  0x2f, 0xaf, 0x51, 0xbe, 0xf3, 0xd6, 0x22, 0xbe, 0x13, 0x69, 0x3f, 0x3e,
  0x1e, 0xdb, 0x06, 0x3e, 0x31, 0x7b, 0xd0, 0x3d, 0x81, 0x94, 0x2e, 0x3e,
  0x3a, 0xf9, 0x08, 0x3e, 0xdf, 0x7b, 0x22, 0x3d, 0x42, 0x02, 0x51, 0x3d,
  0xbd, 0xd9, 0x9b, 0x3d, 0xf0, 0x78, 0x6a, 0xbd, 0xe0, 0xee, 0x03, 0xbe,
  0x90, 0xa6, 0x06, 0xbe, 0x4c, 0xf4, 0xe0, 0xbc, 0x4a, 0x46, 0x1d, 0xbe,
  0x1e, 0x07, 0xb9, 0x3d, 0xcc, 0x60, 0x97, 0x3d, 0x99, 0xfb, 0xd5, 0x3d,
  0xe4, 0x64, 0xbf, 0xbd, 0x46, 0xca, 0x5d, 0x3c, 0x13, 0xe3, 0x38, 0x3e,
  0xe6, 0x7e, 0xff, 0xbc, 0x28, 0xde, 0x5c, 0xbd, 0x66, 0x36, 0xe1, 0xbd,
  0x01, 0x55, 0x23, 0x3e, 0xbf, 0x8a, 0x8c, 0xbd, 0x0c, 0x71, 0xa7, 0x3d,
  0x6a, 0xff, 0x2d, 0xbe, 0x8f, 0x68, 0xbe, 0x3c, 0xe8, 0xe0, 0x09, 0x3e,
  0xce, 0xb1, 0xa6, 0xbd, 0xdc, 0x92, 0x96, 0xbc, 0x31, 0xf0, 0x4b, 0xbd,
  0xa4, 0xbf, 0x14, 0x3d, 0x49, 0x8f, 0x0a, 0x3e, 0xd3, 0xd9, 0xeb, 0x3d,
  0x46, 0xda, 0x9a, 0x3c, 0x01, 0x97, 0x15, 0xbe, 0x58, 0x50, 0x8e, 0xbd,
  0x65, 0x51, 0x14, 0x3d, 0x75, 0xa8, 0x98, 0xbd, 0x24, 0xc9, 0x81, 0xbd,
  0x72, 0xa4, 0xa4, 0xbd, 0x16, 0xbd, 0x04, 0x3e, 0x7a, 0x54, 0x95, 0x3d,
  0x0f, 0x23, 0xc7, 0xbd, 0xfd, 0x3c, 0x96, 0xbd, 0x6f, 0x9f, 0xfd, 0xbd,
  0x32, 0x71, 0xa0, 0xbd, 0x05, 0xb6, 0x11, 0x3e, 0x0d, 0x64, 0x15, 0xbe,
  0x49, 0xf4, 0x3f, 0x3e, 0x8f, 0x2c, 0xf0, 0x3d, 0xf5, 0xd8, 0xbc, 0x3b,
  0x79, 0xd8, 0xc8, 0xbd, 0x4e, 0x46, 0x2e, 0x3c, 0xce, 0xe8, 0x15, 0xbe,
  0xcd, 0x71, 0x1b, 0x3e, 0xb6, 0xf0, 0x0d, 0x3d, 0x6b, 0xbc, 0x16, 0x3d,
  0x7b, 0x42, 0xc9, 0x3d, 0xc6, 0x71, 0x01, 0x3e, 0x3b, 0x24, 0x02, 0xbe,
  0x93, 0x0d, 0xa3, 0xbc, 0xb2, 0x51, 0xc3, 0xbd, 0xaa, 0xe7, 0xdb, 0xbd,
  0xea, 0xc6, 0x60, 0xbd, 0xed, 0x05, 0x11, 0xbe, 0xae, 0x24, 0x0b, 0x3e,
  0x6c, 0xb1, 0xcd, 0x3d, 0xad, 0xf8, 0x5e, 0x3e, 0x48, 0x04, 0x27, 0x3d,
  0x84, 0xa5, 0x4d, 0xbd, 0xf0, 0xe3, 0x50, 0xbd, 0xe8, 0x30, 0x59, 0xbd,
  0xd1, 0x10, 0xff, 0xbc, 0x32, 0x65, 0xb6, 0xbd, 0xa7, 0xab, 0x3b, 0x3e,
  0xf1, 0x9f, 0x94, 0x3d, 0x52, 0xc1, 0xa8, 0xbd, 0x55, 0x86, 0x07, 0xbe,
  0x2a, 0x12, 0x59, 0xbc, 0x04, 0xce, 0x10, 0x3d, 0x2a, 0x25, 0x69, 0xba,
  0x31, 0x44, 0xe6, 0xbd, 0x57, 0xb7, 0x04, 0xbe, 0x8e, 0x0a, 0xd8, 0xbd,
  0x13, 0x51, 0x50, 0xbd, 0x82, 0x9f, 0x47, 0x3e, 0x21, 0x4b, 0xb0, 0x3d,
  0x26, 0x24, 0xb7, 0xbc, 0x5f, 0xfb, 0xf4, 0xbd, 0x57, 0x44, 0x21, 0x3e,
  0x4b, 0x43, 0x85, 0x3d, 0xc9, 0x11, 0x67, 0x3d, 0x38, 0xf8, 0x36, 0xbe,
  0x47, 0x53, 0x94, 0x3c, 0x95, 0xba, 0x35, 0x3d, 0x03, 0x7f, 0x30, 0x3d,
  0xdc, 0xdb, 0x7b, 0xbd, 0xc0, 0x07, 0x62, 0x3d, 0x10, 0x76, 0xb4, 0xbc,
  0xc1, 0x5a, 0xcd, 0x3d, 0xce, 0x75, 0x28, 0x3e, 0x82, 0x85, 0xe9, 0x3d,
  0x16, 0xea, 0x01, 0xbe, 0xbb, 0x67, 0x00, 0xbe, 0x40, 0xce, 0x93, 0x3d,
  0xc6, 0xf9, 0xd5, 0xbd, 0x31, 0x3e, 0x6e, 0xbe, 0xb5, 0xef, 0xe3, 0x3d,
  0x00, 0x01, 0x50, 0xbd, 0x13, 0x15, 0xdf, 0xbd, 0xfe, 0xec, 0x54, 0xbd,
  0x87, 0xf5, 0xbe, 0x3c, 0xdc, 0xa0, 0x13, 0xbd, 0xc9, 0xcb, 0x19, 0xbe,
  0x88, 0xdb, 0x3b, 0x3e, 0x4f, 0x4b, 0x57, 0x3d, 0x9a, 0x1c, 0x5a, 0x3e,
  0x2f, 0xe5, 0xf2, 0x3d, 0x1f, 0x88, 0x95, 0xbc, 0x47, 0xf0, 0xbf, 0x3c,
  0x10, 0x00, 0x04, 0xbe, 0x6f, 0x40, 0x05, 0xbe, 0x00, 0x71, 0x07, 0x3e,
  0xf6, 0xd1, 0x13, 0xbe, 0x3d, 0xa6, 0x8b, 0x3d, 0x6d, 0xeb, 0x0f, 0x3e,
  0xfb, 0x6e, 0x2a, 0xbe, 0xa7, 0xfa, 0xc7, 0xbd, 0x8a, 0x36, 0xe7, 0x3b,
  0x8c, 0xb3, 0x2e, 0xbd, 0x0b, 0x8a, 0x39, 0x3d, 0x63, 0xe4, 0xf5, 0x3d,
  0xb6, 0xc9, 0xfb, 0xbd, 0xd6, 0x58, 0xa9, 0x3d, 0xed, 0xd8, 0xc7, 0x3c,
  0x1a, 0x71, 0x76, 0xbd, 0x5f, 0xcd, 0xc0, 0xbd, 0x40, 0x2e, 0x16, 0xbd,
  0xe4, 0x90, 0x9a, 0xbc, 0x4f, 0x86, 0x4e, 0x3b, 0x7b, 0x0c, 0x47, 0xbc,
  0x3e, 0xd1, 0x6d, 0x3b, 0x8c, 0x1a, 0xf0, 0xbd, 0x73, 0x4d, 0x3b, 0x3d,
  0x3c, 0xcb, 0x00, 0xbc, 0x10, 0xf7, 0x4f, 0x3e, 0x12, 0xf5, 0x42, 0x3d,
  0x5e, 0x80, 0x19, 0x3e, 0x75, 0x1f, 0xac, 0xbd, 0x74, 0x6f, 0xb2, 0xbc,
  0xe5, 0x1e, 0xa7, 0x3d, 0xe9, 0x17, 0x98, 0xbd, 0x30, 0x2c, 0x0b, 0x3e,
  0x6a, 0xfb, 0x4c, 0x3e, 0x31, 0xff, 0x4d, 0x3e, 0xaa, 0xef, 0x2c, 0xbc,
  0xce, 0xa2, 0xc7, 0xbd, 0x53, 0xfe, 0x2f, 0xbe, 0xc1, 0x87, 0x58, 0xbe,
  0xa6, 0x6c, 0x80, 0x3d, 0xe8, 0xb7, 0x0b, 0x3e, 0x39, 0xd9, 0x50, 0xbe,
  0x8e, 0x35, 0xb8, 0xbd, 0x3f, 0xbe, 0xcb, 0xbd, 0x7a, 0xaf, 0x0f, 0xbe,
  0xb7, 0xec, 0x03, 0xbb, 0x6d, 0xac, 0xcf, 0xbd, 0x7b, 0x2c, 0x4d, 0xbe,
  0xc0, 0x9a, 0x0c, 0xbe, 0x90, 0xab, 0xc6, 0x3d, 0x17, 0xca, 0x19, 0x3e,
  0x6b, 0xd5, 0x08, 0x3e, 0x8c, 0x5b, 0x76, 0x3c, 0x35, 0x7e, 0x18, 0x3e,
  0x46, 0xb0, 0x5d, 0x3c, 0x09, 0x1f, 0xc2, 0x3d, 0x19, 0x5c, 0x8d, 0xbd,
  0xbb, 0xe1, 0xf1, 0x3c, 0xd9, 0x9a, 0x1c, 0xbd, 0x82, 0xba, 0xec, 0x3d,
  0x55, 0x1e, 0xd1, 0x3d, 0x6a, 0x72, 0x44, 0x3d, 0x9b, 0x13, 0xd1, 0xbc,
  0xea, 0x4b, 0xb4, 0x3d, 0x45, 0xc3, 0x50, 0xbd, 0x20, 0x9c, 0xb5, 0xbd,
  0x9f, 0x0d, 0x82, 0x3d, 0xe7, 0x66, 0xe5, 0xbd, 0xdc, 0x84, 0x13, 0xbd,
  0xf0, 0x7b, 0xea, 0x3d, 0x65, 0x70, 0x4a, 0xbc, 0x17, 0x8c, 0xc0, 0x3d,
  0x0c, 0x12, 0xe3, 0xbd, 0x44, 0xa5, 0xf9, 0x3d, 0x4e, 0x49, 0x0e, 0x3e,
  0xaf, 0xdc, 0xf1, 0xbd, 0x39, 0xa2, 0x0c, 0xbe, 0xdf, 0x43, 0xb5, 0xbd,
  0x58, 0xa7, 0x04, 0xbd, 0xbd, 0xe5, 0x7e, 0x3e, 0x72, 0x90, 0xd3, 0xbd,
  0xb6, 0x07, 0xbf, 0xbd, 0x03, 0x1c, 0xa9, 0x3d, 0x2f, 0xc3, 0x16, 0xbe,
  0x6c, 0xfd, 0x1a, 0x3c, 0x2d, 0x82, 0x15, 0x3c, 0xd8, 0xcd, 0xe2, 0xbd,
  0x53, 0x54, 0x8b, 0x3d, 0xdc, 0xa2, 0x11, 0x3e, 0x69, 0xe5, 0x88, 0xbd,
  0x49, 0x39, 0xfa, 0xbd, 0x3e, 0x3f, 0x14, 0x3e, 0xc6, 0x6d, 0xb7, 0xbd,
  0x54, 0x15, 0x44, 0x3e, 0x32, 0x98, 0x38, 0xbe, 0x0b, 0x7e, 0xfa, 0xbd,
  0xb7, 0xe8, 0xc5, 0x3d, 0x1d, 0x35, 0x4f, 0x3d, 0x9f, 0x69, 0x47, 0xbd,
  0xbf, 0x60, 0x57, 0x3d, 0x05, 0xb9, 0x2c, 0xbe, 0x14, 0x52, 0x52, 0xbd,
  0x3c, 0x02, 0x01, 0xbd, 0x45, 0x00, 0xb5, 0x3c, 0xd3, 0xb8, 0x70, 0x3d,
  0x1a, 0xe5, 0x49, 0x3e, 0xfe, 0xb5, 0xc0, 0x3d, 0x06, 0x61, 0x7f, 0xbd,
  0xd8, 0x0f, 0x25, 0x3d, 0x0b, 0x71, 0x13, 0xbd, 0x73, 0x5a, 0x02, 0x3e,
  0xed, 0xff, 0xb3, 0x3d, 0x78, 0x08, 0xff, 0x3d, 0x7d, 0x75, 0xc3, 0xbd,
  0x6b, 0x8e, 0x7a, 0xbc, 0xbf, 0x44, 0x32, 0xbd, 0x4d, 0x8e, 0x8d, 0x3c,
  0x46, 0x74, 0xdc, 0x3d, 0xeb, 0x03, 0x7e, 0x3d, 0xff, 0xc4, 0xa1, 0x3c,
  0x4c, 0x92, 0x44, 0xbe, 0xf6, 0x48, 0xe5, 0x3d, 0x8e, 0xae, 0x09, 0xbe,
  0xce, 0x03, 0x9d, 0xbc, 0x7d, 0xfa, 0x1a, 0x3d, 0xf5, 0x47, 0x72, 0x3d,
  0x21, 0xa0, 0x08, 0x3d, 0x7b, 0xb6, 0xe1, 0xbd, 0x5e, 0xd4, 0xfe, 0xbd,
  0x4c, 0xca, 0xde, 0xbd, 0xca, 0x59, 0x18, 0x3d, 0xf9, 0xb2, 0x12, 0xbe,
  0x4c, 0x2a, 0x13, 0xbe, 0xcc, 0xeb, 0x29, 0xbe, 0x66, 0x76, 0x26, 0x3e,
  0x45, 0x99, 0x78, 0xbd, 0x4e, 0xe8, 0xeb, 0x3d, 0xc4, 0x7b, 0x90, 0x3c,
  0xc9, 0x53, 0xc4, 0xbd, 0x53, 0x21, 0x75, 0x3e, 0xb3, 0x07, 0x0b, 0xbd,
  0xda, 0x7e, 0xf5, 0x3c, 0x1f, 0x4b, 0x38, 0x3e, 0x87, 0x3c, 0x69, 0x3e,
  0xe7, 0x7d, 0xfe, 0xbd, 0x8a, 0x68, 0x97, 0xbd, 0x6d, 0xa7, 0xa0, 0xbd,
  0xc4, 0xca, 0x16, 0xbe, 0x69, 0x0b, 0x46, 0x3e, 0x22, 0x2b, 0xc7, 0xbd,
  0x9d, 0xff, 0xce, 0x3d, 0x54, 0x5e, 0x55, 0xbd, 0x6e, 0x69, 0x1f, 0xbe,
  0x12, 0x64, 0x87, 0x3d, 0x07, 0x7f, 0x81, 0xbc, 0x5e, 0x5e, 0xc0, 0xbd,
  0x1c, 0x0a, 0x2f, 0x3e, 0xd2, 0xb0, 0x00, 0x3e, 0x23, 0x81, 0xe9, 0xbd,
  0x81, 0x0c, 0x5b, 0x3d, 0xc7, 0x84, 0x18, 0xbe, 0x14, 0x65, 0x35, 0x3d,
  0x51, 0xf9, 0x52, 0x3d, 0xa2, 0x99, 0xd7, 0x3d, 0x32, 0x0b, 0x12, 0xbd,
  0x90, 0x01, 0xaf, 0xbd, 0xd8, 0x05, 0x7e, 0xbd, 0xf1, 0xc9, 0xc9, 0x3d,
  0x34, 0x0c, 0x40, 0x3e, 0x0c, 0xc5, 0x1f, 0x3e, 0x9b, 0x46, 0x0a, 0xbe,
  0x0a, 0x48, 0x1f, 0xbe, 0x5f, 0x52, 0x26, 0x3e, 0xa6, 0xe5, 0xd8, 0x3b,
  0x13, 0xb6, 0x84, 0xbd, 0xf6, 0xca, 0xbd, 0xbd, 0x14, 0xb4, 0x8b, 0xbc,
  0xa3, 0xdc, 0xd0, 0x3d, 0x68, 0x0b, 0x94, 0x3d, 0xa6, 0xa2, 0xc8, 0x3d,
  0xe4, 0x32, 0xff, 0x3c, 0x4d, 0x01, 0x62, 0xbd, 0x1a, 0x71, 0x35, 0xbe,
  0xd9, 0x41, 0x48, 0xbb, 0x08, 0xc8, 0x3b, 0x3e, 0x25, 0xef, 0x8e, 0x3c,
  0xa9, 0x5c, 0x31, 0xbe, 0x76, 0x5c, 0x31, 0xbe, 0x88, 0x3c, 0xe2, 0xbd,
  0xbb, 0x2f, 0x11, 0x3e, 0x55, 0xc7, 0xc3, 0xbb, 0x47, 0x66, 0x2d, 0x3e,
  0x56, 0xdc, 0x9b, 0x3d, 0x53, 0x0d, 0x62, 0xbc, 0x5c, 0x36, 0x06, 0x3d,
  0x86, 0x14, 0x1d, 0xbe, 0xaa, 0x2c, 0x65, 0x3d, 0x3e, 0x11, 0x60, 0xbd,
  0x05, 0xa8, 0x7e, 0x3d, 0x5a, 0x40, 0xd2, 0xbd, 0xe6, 0xbb, 0x19, 0x3e,
  0x6f, 0x76, 0xaf, 0xbd, 0xf6, 0x7a, 0xff, 0x3a, 0xcd, 0x68, 0x10, 0xbe,
  0x6d, 0x4a, 0x0d, 0xbe, 0x84, 0xa9, 0xa2, 0xbd, 0x4c, 0x73, 0x42, 0x3c,
  0x79, 0xed, 0x3f, 0xbe, 0xb4, 0x81, 0x18, 0x3e, 0x30, 0x29, 0x36, 0x3d,
  0x77, 0x6c, 0x53, 0x3d, 0x0e, 0x9e, 0x04, 0xbe, 0x51, 0xb6, 0xf5, 0x3c,
  0x17, 0x9f, 0x05, 0xbe, 0x07, 0x99, 0x3e, 0xbe, 0x7c, 0x40, 0xdc, 0x3d,
  0x65, 0x06, 0x16, 0x3e, 0x95, 0x02, 0x0a, 0x3d, 0xd5, 0xae, 0x02, 0x3e,
  0xf0, 0x66, 0xf6, 0x3d, 0xf2, 0xd0, 0xe4, 0x3d, 0xa7, 0x22, 0xcf, 0x3d,
  0xa6, 0xaa, 0x77, 0x3a, 0xe9, 0xc3, 0x26, 0xbd, 0xc9, 0x9c, 0x38, 0x3d,
  0x13, 0xa5, 0x8a, 0xbd, 0x02, 0xed, 0xcb, 0xbd, 0xc3, 0x7e, 0xb8, 0xbd,
  0x7b, 0xd0, 0x1a, 0x3e, 0x25, 0x37, 0x30, 0xbe, 0xe3, 0x3f, 0x33, 0x3d,
  0xf4, 0x51, 0xc9, 0xbd, 0x5f, 0x40, 0x70, 0xbd, 0x05, 0xdf, 0x11, 0x3e,
  0x14, 0x02, 0x12, 0x3e, 0xf1, 0xc5, 0x16, 0x3d, 0x5f, 0x7c, 0xea, 0x3c,
  0x41, 0x24, 0x73, 0xbb, 0x81, 0x9d, 0x32, 0x3e, 0x5b, 0xf8, 0xe0, 0xbd,
  0xd2, 0x04, 0x63, 0xbc, 0x2e, 0x89, 0xa5, 0x3c, 0x4c, 0x87, 0x1d, 0x3c,
  0x37, 0xe3, 0x10, 0x3e, 0x3e, 0xa8, 0x3b, 0x3d, 0xda, 0xe9, 0x25, 0x3e,
  0xe3, 0xaf, 0xfb, 0xbd, 0x47, 0x92, 0xfc, 0x3d, 0x80, 0x6b, 0x83, 0x3d,
  0x37, 0xe1, 0xbd, 0xbd, 0x31, 0xc9, 0x52, 0xbe, 0xbe, 0xac, 0x6b, 0xbd,
  0xe9, 0x3c, 0x47, 0xbe, 0x60, 0xd5, 0x50, 0xbe, 0x87, 0x07, 0x3d, 0xbe,
  0x06, 0x44, 0x44, 0x3d, 0x66, 0x00, 0x19, 0xbe, 0xb7, 0x19, 0x2a, 0x3e,
  0x4e, 0x0d, 0x22, 0xbe, 0x35, 0xbc, 0x0d, 0xbe, 0xc7, 0x38, 0xeb, 0x3d,
  0x17, 0x8f, 0xee, 0xbd, 0xa0, 0x22, 0x1d, 0x3c, 0xd5, 0xdb, 0x49, 0x3d,
  0x56, 0x57, 0xa2, 0x3d, 0x8f, 0xd7, 0xf8, 0xbb, 0x89, 0x83, 0xde, 0x3d,
  0x2d, 0xff, 0xa1, 0x3d, 0x46, 0x31, 0xf1, 0x3d, 0x40, 0xb6, 0xe4, 0x3d,
  0x2f, 0x42, 0x86, 0xbd, 0xf9, 0xb0, 0x60, 0x3e, 0x58, 0xf7, 0x3c, 0x3e,
  0x41, 0x74, 0xd5, 0x3c, 0xa2, 0x50, 0xdd, 0xbd, 0x48, 0xdd, 0xfe, 0xbc,
  0xf1, 0x9e, 0x5f, 0x3e, 0x2a, 0x4e, 0xfc, 0x3c, 0x6a, 0xe3, 0x73, 0x3d,
  0xb7, 0xf8, 0xe2, 0xbd, 0xe0, 0xea, 0xc2, 0x3b, 0x81, 0x28, 0xae, 0xbd,
  0x75, 0x1c, 0x9c, 0xbd, 0x81, 0xbc, 0x2d, 0xbe, 0xa4, 0x24, 0x2a, 0x3e,
  0xec, 0xd1, 0x56, 0x3d, 0xbc, 0x7e, 0x14, 0x3d, 0x27, 0x8d, 0x90, 0xbd,
  0xa9, 0x0e, 0xcf, 0x3d, 0xc3, 0x8c, 0xfd, 0x3c, 0x38, 0xe0, 0x69, 0xbd,
  0xfe, 0xa5, 0xc3, 0x3d, 0x98, 0x6f, 0x94, 0xbd, 0x80, 0xe5, 0x17, 0xbe,
  0x40, 0x74, 0x18, 0x3e, 0x22, 0x8a, 0x2b, 0x3e, 0xb6, 0x22, 0xe1, 0x3c,
  0x8d, 0x8e, 0x28, 0xbe, 0x27, 0xb9, 0x82, 0x3d, 0xa7, 0xa9, 0x42, 0xbd,
  0x22, 0x2a, 0x9c, 0x3c, 0xd0, 0xfc, 0x11, 0xbe, 0xd9, 0x35, 0x5f, 0xbe,
  0x29, 0x23, 0x19, 0xbe, 0xdc, 0x14, 0xe4, 0xbd, 0xab, 0xf3, 0xbc, 0xbd,
  0x7f, 0x5e, 0x1d, 0x3e, 0xd8, 0xa2, 0xe2, 0xbc, 0xb4, 0x51, 0x68, 0xbd,
  0x0b, 0x6e, 0x21, 0x3e, 0x66, 0x06, 0xf1, 0x3c, 0x05, 0xc8, 0x38, 0x3e,
  0xd9, 0xa9, 0x84, 0xbd, 0x85, 0x8b, 0x42, 0x3d, 0xc1, 0x55, 0x25, 0xbe,
  0x06, 0x95, 0xa5, 0xbc, 0x60, 0x7f, 0x46, 0x3e, 0x4c, 0x2e, 0x2c, 0xbd,
  0x3b, 0x22, 0xe7, 0xbd, 0x27, 0x25, 0x89, 0x3d, 0x59, 0x28, 0x13, 0x3d,
  0x06, 0x6f, 0x2e, 0xbd, 0x16, 0x85, 0xe9, 0xbd, 0x35, 0xd4, 0xa8, 0x3d,
  0x6d, 0x18, 0x01, 0x3d, 0x8e, 0x4b, 0x5f, 0x3e, 0xd9, 0x0e, 0x49, 0x3c,
  0x48, 0x6d, 0x25, 0xbe, 0x71, 0x78, 0xd9, 0x3d, 0x6e, 0xc4, 0x2e, 0x3e,
  0x29, 0xba, 0x2a, 0x3c, 0x92, 0xcf, 0xfb, 0xbd, 0x06, 0x61, 0xe1, 0xbc,
  0xb1, 0x43, 0xd3, 0xbd, 0xcc, 0x98, 0xcb, 0x3d, 0x88, 0x5d, 0x84, 0x3d,
  0x1f, 0x01, 0xf7, 0x3d, 0x9b, 0x98, 0xdc, 0xbd, 0xbc, 0x56, 0x4e, 0xbe,
  0xde, 0x2c, 0x16, 0xbe, 0x6b, 0xa5, 0xbf, 0x3d, 0x84, 0xfa, 0xd5, 0xbd,
  0xa3, 0xe5, 0x9c, 0xbb, 0x87, 0xb7, 0xea, 0xbd, 0x2b, 0x26, 0x64, 0x3e,
  0x79, 0x2c, 0x2b, 0x3d, 0x45, 0x16, 0x65, 0xbb, 0x13, 0x8f, 0x45, 0x3a,
  0x0b, 0xbc, 0x14, 0xbd, 0x31, 0xc0, 0x60, 0x3d, 0x94, 0x4a, 0xeb, 0x3d,
  0xb9, 0x77, 0x9b, 0xbd, 0xb9, 0xeb, 0x17, 0xbe, 0x9d, 0x5f, 0x82, 0xbd,
  0x11, 0x3a, 0xb8, 0x3d, 0xe3, 0x88, 0xbb, 0xbc, 0xb2, 0xb4, 0xe9, 0x3d,
  0x5d, 0xf4, 0x30, 0xbe, 0x84, 0x63, 0x09, 0x3e, 0x07, 0xde, 0x00, 0x3e,
  0xc6, 0x1c, 0xbf, 0x3d, 0x61, 0xe9, 0xc2, 0x3c, 0xa5, 0x44, 0x2b, 0x3e,
  0xfe, 0xa2, 0xae, 0x3d, 0x35, 0x5b, 0x00, 0xbe, 0xe5, 0x5b, 0x2a, 0xbc,
  0x0c, 0x6d, 0x75, 0xbd, 0x6e, 0x12, 0x26, 0x3d, 0xc1, 0x92, 0x13, 0xbe,
  0xfd, 0xe7, 0x46, 0xbe, 0x5e, 0x6b, 0xc2, 0xbc, 0x2c, 0xa2, 0xd3, 0xbd,
  0xc5, 0xad, 0x27, 0x3c, 0x39, 0x35, 0x26, 0xbe, 0x3e, 0xed, 0xf9, 0x3d,
  0x3f, 0xb0, 0xa7, 0x3d, 0xa6, 0x4a, 0x53, 0xbe, 0xcc, 0x94, 0xe5, 0x3d,
  0xdf, 0x50, 0xff, 0xbc, 0x6d, 0x18, 0xb0, 0xbd, 0x2c, 0x04, 0x2a, 0xbe,
  0x84, 0xca, 0x2a, 0x3d, 0x4b, 0xbc, 0xac, 0x3d, 0x94, 0x88, 0xf5, 0xbd,
  0xaf, 0xfd, 0x21, 0x3e, 0xa1, 0x88, 0x5d, 0x3e, 0xd3, 0x9c, 0x0b, 0x3e,
  0xa7, 0x6f, 0x44, 0x3e, 0x0d, 0x07, 0x09, 0x3e, 0xc9, 0xe7, 0xa4, 0xbd,
  0x3f, 0x84, 0x54, 0xbd, 0x7e, 0x06, 0x86, 0xbc, 0xa6, 0xff, 0x1e, 0xbc,
  0x1a, 0x3d, 0xa8, 0x3d, 0xf2, 0xd6, 0x3b, 0x3e, 0xd0, 0xf4, 0x56, 0xbb,
  0x8a, 0xce, 0x11, 0xbe, 0xa3, 0x76, 0x49, 0xbe, 0x39, 0xb3, 0x44, 0xbe,
  0xa7, 0x59, 0xd0, 0xbd, 0xa2, 0xc8, 0xb1, 0x3d, 0x7e, 0x2b, 0xeb, 0x3d,
  0x8d, 0xc2, 0xad, 0xbd, 0xb8, 0x83, 0xb4, 0xbd, 0xf0, 0x29, 0x6a, 0xbd,
  0x29, 0xb2, 0x03, 0x3e, 0x6e, 0x12, 0x0b, 0xbd, 0x4a, 0x02, 0x0f, 0xbe,
  0x44, 0x2c, 0xa8, 0x3d, 0x0a, 0x38, 0x0b, 0x3e, 0x38, 0x35, 0xf7, 0x3c,
  0xb8, 0x55, 0xb3, 0x3d, 0x9f, 0x6d, 0x85, 0xbd, 0x2c, 0x5a, 0x12, 0xbe,
  0x2c, 0x4d, 0x9b, 0x3d, 0x48, 0xa4, 0xbf, 0xbd, 0x0c, 0x63, 0x2c, 0xbe,
  0x3d, 0x46, 0xf6, 0x3d, 0xf5, 0x98, 0x8e, 0x3c, 0x4a, 0x26, 0x97, 0x3d,
  0x2f, 0x02, 0xb8, 0x3d, 0x87, 0x06, 0x9e, 0xbc, 0x40, 0x76, 0xc9, 0xbd,
  0x0b, 0x29, 0x1f, 0x3e, 0xb6, 0x30, 0xf6, 0xbd, 0xc2, 0x5a, 0xda, 0xbd,
  0xb7, 0xa3, 0x4a, 0x3d, 0xad, 0x55, 0x05, 0x3d, 0xb3, 0xfe, 0x94, 0xbd,
  0xc3, 0xad, 0x12, 0x3d, 0x90, 0x96, 0xbe, 0x3d, 0x26, 0x68, 0x24, 0x3e,
  0x8e, 0x93, 0x22, 0xbd, 0xe8, 0x52, 0xda, 0xbd, 0x6d, 0x0d, 0xc2, 0xbd,
  0x97, 0xb2, 0x21, 0x3d, 0x10, 0x78, 0xde, 0x3d, 0x0e, 0x3e, 0xe0, 0x3d,
  0x4e, 0x4e, 0xe5, 0x3b, 0x3f, 0xe9, 0x35, 0x3e, 0xa4, 0x15, 0x73, 0x3d,
  0xa1, 0x6f, 0xc7, 0x3d, 0xc2, 0x97, 0x27, 0xbe, 0x31, 0x04, 0x46, 0xbd,
  0x73, 0x99, 0xee, 0xbd, 0x5b, 0xa9, 0xcb, 0xbd, 0xc6, 0xaa, 0x48, 0x3c,
  0x07, 0x94, 0x0a, 0xbe, 0xd9, 0xdf, 0xf5, 0xbd, 0x7f, 0x5d, 0xb3, 0xbd,
  0x81, 0xc4, 0xee, 0x3d, 0x4b, 0x73, 0xe0, 0xbd, 0x4f, 0xc3, 0xda, 0xbd,
  0xdc, 0x5f, 0x13, 0x3b, 0x2e, 0xcb, 0x0e, 0x3e, 0x39, 0xc3, 0xd2, 0x3d,
  0x38, 0x7a, 0x5d, 0xbd, 0xac, 0xca, 0xd8, 0xbc, 0xca, 0x44, 0x01, 0x3e,
  0xa9, 0xd8, 0x24, 0x3e, 0xee, 0xb2, 0x8b, 0x3d, 0xd5, 0x90, 0xac, 0xbd,
  0xf8, 0xcd, 0xe3, 0xbd, 0xb2, 0xff, 0xc5, 0x3d, 0x5c, 0x9e, 0xb1, 0xbd,
  0xb2, 0x9c, 0xf9, 0x3d, 0xe9, 0x69, 0xe1, 0x3d, 0xa0, 0x72, 0xdb, 0xbc,
  0x00, 0xf9, 0x0a, 0x3e, 0x6e, 0x86, 0xeb, 0x3c, 0x6b, 0x4a, 0x48, 0xbd,
  0x82, 0xc4, 0xf4, 0xbd, 0x5c, 0x37, 0x47, 0xbe, 0x2e, 0x15, 0xcd, 0x3d,
  0x04, 0x61, 0x19, 0x3e, 0x4b, 0x11, 0x17, 0x3e, 0x49, 0x00, 0x91, 0xbd,
  0x5c, 0xbf, 0x7d, 0x3d, 0xa1, 0xbb, 0xc3, 0x3b, 0xa7, 0xef, 0x2f, 0xbe,
  0xdc, 0x55, 0x2e, 0xbd, 0x0b, 0x99, 0xe8, 0xbd, 0xcf, 0x43, 0x18, 0xbd,
  0x2d, 0x05, 0x1e, 0xbd, 0xf3, 0x4f, 0x49, 0xbd, 0x36, 0x4a, 0x7f, 0xbb,
  0x3e, 0xd7, 0xe4, 0xbd, 0x60, 0x1d, 0x43, 0xbe, 0x1a, 0x81, 0x20, 0x3d,
  0xe1, 0xad, 0xb7, 0x3d, 0x46, 0x8f, 0x31, 0x3e, 0x27, 0x8c, 0x12, 0x3e,
  0xd3, 0x3f, 0x07, 0x3e, 0xf8, 0x75, 0x46, 0xba, 0xe8, 0xa8, 0x0e, 0x3e,
  0x92, 0x72, 0x83, 0x3d, 0xeb, 0x16, 0x36, 0xbe, 0x01, 0xd6, 0x8e, 0xbd,
  0xe8, 0x10, 0x0d, 0xbe, 0xac, 0x46, 0x4f, 0xbd, 0xda, 0xc9, 0xb8, 0x3d,
  0xe1, 0x99, 0xfa, 0xbd, 0xea, 0x0a, 0xcb, 0x3d, 0x4c, 0xed, 0x0d, 0x3e,
  0x98, 0xd9, 0x08, 0x3e, 0x0d, 0x36, 0x1f, 0x3b, 0x68, 0xca, 0xdd, 0x3c,
  0xb0, 0xd2, 0xcd, 0x3c, 0x86, 0x2b, 0x57, 0x3b, 0xf0, 0xc8, 0xa6, 0x3b,
  0xcc, 0x54, 0x4e, 0xbd, 0x8e, 0xdb, 0xc9, 0xbd, 0x20, 0xf4, 0xac, 0xbc,
  0xff, 0xf2, 0xe7, 0xbd, 0x6c, 0x33, 0x0b, 0xbd, 0x09, 0x5b, 0xfe, 0x3d,
  0x5a, 0xbb, 0x0c, 0xbe, 0x70, 0xb3, 0x05, 0xbe, 0xfe, 0x7b, 0x71, 0x3d,
  0x8b, 0xf3, 0x4c, 0x3e, 0x3d, 0xa3, 0xa7, 0xbd, 0xe0, 0x49, 0x60, 0x3d,
  0x71, 0x2a, 0xc4, 0xbd, 0xf4, 0x79, 0xa2, 0xbd, 0x49, 0xb3, 0xe1, 0xbd,
  0xf0, 0xdf, 0x82, 0x3d, 0x8b, 0x58, 0x5d, 0x3d, 0x86, 0x09, 0x2a, 0xbd,
  0x65, 0x00, 0x93, 0x3d, 0xb8, 0x5c, 0xd6, 0xbd, 0x68, 0x87, 0x52, 0xbd,
  0xf3, 0x15, 0xc7, 0x3d, 0x3c, 0x8c, 0x40, 0x3e, 0x95, 0xa8, 0xfb, 0x3d,
  0x0a, 0x87, 0x66, 0xbc, 0xd5, 0xbf, 0xbc, 0xbd, 0x35, 0xb5, 0x38, 0xbd,
  0x97, 0xf4, 0x9f, 0xbc, 0x5f, 0x27, 0xaf, 0xbd, 0xfd, 0x8d, 0x18, 0xbe,
  0xae, 0xf5, 0x09, 0xbb, 0xc4, 0x50, 0x02, 0x3e, 0x1a, 0x2d, 0x88, 0x3d,
  0x6a, 0x20, 0x86, 0x3c, 0xe8, 0x02, 0xb6, 0x3d, 0x76, 0x91, 0x9e, 0xbd,
  0x11, 0xd5, 0x25, 0x3c, 0x2f, 0x75, 0x3a, 0xbd, 0x37, 0x5f, 0x34, 0xbe,
  0x36, 0xfa, 0xd6, 0x3d, 0x07, 0x69, 0x09, 0x3e, 0x79, 0x18, 0xc0, 0x3d,
  0x58, 0xeb, 0x4a, 0x3d, 0xb8, 0x77, 0x37, 0x3d, 0xd6, 0x3e, 0xe2, 0xbc,
  0x8a, 0x1d, 0xa6, 0xbd, 0xb8, 0xc5, 0x1a, 0xbd, 0x88, 0x19, 0xee, 0xbd,
  0x37, 0xdb, 0xcc, 0xbc, 0xd4, 0x72, 0x4f, 0xbd, 0x63, 0x6c, 0x3c, 0x3e,
  0xe8, 0xcc, 0x56, 0xbd, 0x37, 0x75, 0x33, 0xbe, 0x28, 0xf2, 0x28, 0xbd,
  0xb6, 0x94, 0x67, 0x3d, 0xc4, 0xa7, 0x7e, 0x3c, 0x8d, 0x5c, 0xf2, 0x3d,
  0x8c, 0x0d, 0xe0, 0xbd, 0xb8, 0x42, 0x1a, 0x3e, 0xcc, 0x14, 0x37, 0x3e,
  0xda, 0xec, 0xb8, 0x3d, 0x19, 0x8e, 0x07, 0xbe, 0x75, 0x76, 0x0e, 0xbd,
  0xcb, 0xf6, 0xef, 0x3c, 0x13, 0x72, 0x2d, 0xbc, 0x62, 0x61, 0xff, 0xbd,
  0xa5, 0x72, 0x44, 0xbd, 0x9b, 0x6c, 0xfc, 0xbd, 0x7a, 0x8c, 0xd9, 0x3c,
  0xa0, 0xa9, 0x0d, 0xbc, 0x7f, 0xc3, 0x28, 0x3e, 0x7f, 0x30, 0x1b, 0x3e,
  0xf8, 0x59, 0x8c, 0xbd, 0xa2, 0x1d, 0xfc, 0xbd, 0xc4, 0xcf, 0xd1, 0xbd,
  0x4b, 0x3a, 0x65, 0xb9, 0x39, 0xee, 0xd9, 0xbd, 0x74, 0x6e, 0x17, 0x3d,
  0x1b, 0xa1, 0x96, 0x3d, 0x2e, 0x56, 0x23, 0x3e, 0x6b, 0x40, 0x37, 0xbd,
  0xfa, 0x4b, 0x17, 0x3d, 0x60, 0x51, 0x0e, 0x3e, 0x73, 0x6c, 0xea, 0xbd,
  0x13, 0x94, 0x29, 0xbe, 0x63, 0xcb, 0x1c, 0xbe, 0x83, 0x32, 0x33, 0x3e,
  0x27, 0x6a, 0xcd, 0x3d, 0xb3, 0xde, 0xaf, 0x3b, 0x2b, 0xf0, 0xb0, 0x3d,
  0xec, 0x2f, 0x2d, 0x3e, 0x1d, 0x14, 0xfd, 0x3d, 0x56, 0x71, 0x0a, 0xbd,
  0x88, 0x43, 0x06, 0xbd, 0xb9, 0xed, 0x2c, 0xbe, 0xed, 0xc8, 0x28, 0xbe,
  0xaf, 0x3f, 0x23, 0x3c, 0xf9, 0x30, 0xc1, 0x3d, 0xc3, 0x17, 0x69, 0xbd,
  0xf1, 0x0b, 0xf4, 0xbc, 0xa6, 0x0c, 0x24, 0xbe, 0xb8, 0x76, 0x11, 0xbe,
  0x21, 0x43, 0x13, 0x3b, 0x65, 0x43, 0xf2, 0x3d, 0x2d, 0xf9, 0x1e, 0x3d,
  0x6a, 0x92, 0xa0, 0xbd, 0x63, 0x3e, 0xba, 0x3b, 0x53, 0xec, 0xf1, 0xbd,
  0x6b, 0xc0, 0x63, 0x3d, 0xc5, 0xbc, 0x34, 0x3e, 0x39, 0x96, 0x57, 0x3d,
  0x7b, 0x21, 0x82, 0xbc, 0xbf, 0x1b, 0x0c, 0xbe, 0x2c, 0x1f, 0x08, 0x3e,
  0x53, 0x14, 0x2f, 0xbd, 0xf9, 0x0c, 0xa7, 0x3c, 0xf1, 0xf2, 0x45, 0x3e,
  0x31, 0x80, 0xd8, 0xbc, 0x7e, 0xbd, 0xe6, 0xbd, 0xba, 0x6b, 0x5c, 0x3e,
  0x2f, 0x6d, 0x8b, 0xbd, 0x26, 0x0c, 0xa6, 0xbd, 0x3c, 0x08, 0xa7, 0x3c,
  0xbe, 0xd1, 0x31, 0xbe, 0x59, 0x55, 0xae, 0xbd, 0x2c, 0xbf, 0x11, 0x3d,
  0x7c, 0xf4, 0x0b, 0x3d, 0xd6, 0xa3, 0x33, 0xbe, 0x43, 0x1b, 0xeb, 0xbc,
  0x69, 0x10, 0xf8, 0xbd, 0x9f, 0x23, 0x14, 0x3c, 0x77, 0x30, 0xb3, 0x3b,
  0x37, 0xe3, 0x9c, 0x3d, 0x02, 0x20, 0x16, 0x3d, 0x0a, 0x0a, 0xb5, 0xbc,
  0xfc, 0xd3, 0x03, 0x3e, 0x00, 0x66, 0xac, 0x3d, 0xcc, 0xbf, 0xde, 0x3d,
  0x10, 0xdd, 0x92, 0x3c, 0x4d, 0x45, 0xaa, 0x3d, 0xb2, 0xdb, 0xb4, 0x3c,
  0x3c, 0x5b, 0x65, 0xbb, 0xe2, 0x7f, 0x2b, 0xbe, 0x07, 0xb2, 0x07, 0x3e,
  0x72, 0x90, 0xad, 0x3d, 0x7d, 0x78, 0x1c, 0xbe, 0x87, 0xb8, 0x01, 0xbd,
  0x18, 0xee, 0xf9, 0x3d, 0x3f, 0x25, 0x27, 0x3d, 0x1c, 0x15, 0x13, 0x3e,
  0x38, 0x40, 0x46, 0x3d, 0xbe, 0x91, 0x4a, 0xbd, 0xd3, 0xd0, 0x0e, 0xbe,
  0x13, 0x6e, 0x65, 0xbe, 0xd1, 0x11, 0xcc, 0x3d, 0x85, 0x0e, 0x41, 0xbe,
  0xec, 0xc5, 0x3f, 0xbe, 0x49, 0xbb, 0x98, 0xbc, 0x98, 0xb6, 0x70, 0xbd,
  0xb8, 0x68, 0x2a, 0x3e, 0x2f, 0x1e, 0xe3, 0x3c, 0x66, 0xf1, 0x0b, 0x3e,
  0xfd, 0xd1, 0xb9, 0xbd, 0x1d, 0x06, 0xa7, 0x3d, 0x26, 0x3a, 0x57, 0x3d,
  0x29, 0x69, 0xba, 0x3b, 0x9a, 0x06, 0x29, 0xbe, 0x45, 0xba, 0x82, 0xbc,
  0x64, 0x8e, 0x9b, 0x3d, 0x7f, 0x3d, 0x30, 0x3d, 0xa9, 0xca, 0xe4, 0x3d,
  0x65, 0x9f, 0xe4, 0xbd, 0x11, 0x0c, 0xaa, 0x3d, 0x96, 0xa9, 0xdc, 0xbd,
  0x3a, 0xc0, 0x73, 0xbd, 0xdc, 0xd7, 0x85, 0x3e, 0x24, 0x6b, 0x14, 0xbd,
  0x14, 0x65, 0xb2, 0x3d, 0x07, 0x6a, 0x88, 0xbd, 0x8a, 0xc0, 0xdf, 0xbd,
  0xf6, 0xd9, 0xfb, 0xbd, 0x30, 0x0b, 0xdd, 0xbc, 0x36, 0x09, 0x37, 0x3e,
  0x0d, 0x33, 0xd4, 0x3c, 0x1e, 0x7d, 0x70, 0xbd, 0xbf, 0xcc, 0xaa, 0xbd,
  0x30, 0xe3, 0x0a, 0x3e, 0x79, 0x3f, 0x82, 0x3d, 0x66, 0xd1, 0xc4, 0xbd,
  0xd6, 0xcf, 0x07, 0x3e, 0x1c, 0xf5, 0x46, 0x3e, 0x76, 0x17, 0xd6, 0x3b,
  0x52, 0x2c, 0xb9, 0xbd, 0x14, 0x1e, 0x7d, 0x3d, 0x19, 0x91, 0x83, 0x3d,
  0x5a, 0xa4, 0x3f, 0xbe, 0x69, 0xb4, 0x02, 0xbe, 0xd9, 0x96, 0x11, 0x3e,
  0x54, 0x6c, 0x25, 0xbe, 0x66, 0xd5, 0x28, 0x3e, 0x22, 0xe5, 0xa4, 0xbd,
  0x98, 0xad, 0x5b, 0xbe, 0xda, 0xe2, 0x4c, 0xbe, 0x0a, 0xd1, 0x95, 0x3d,
  0x86, 0x1e, 0xce, 0x3d, 0xde, 0xbf, 0xce, 0x3d, 0xba, 0xdb, 0x2e, 0x3e,
  0xd1, 0xad, 0x04, 0xbe, 0x72, 0xb8, 0x3f, 0x3e, 0x51, 0xac, 0x4f, 0x3e,
  0x4a, 0x0b, 0x13, 0x3e, 0x25, 0xa0, 0x3a, 0xbe, 0xfb, 0x43, 0xc9, 0xbd,
  0x52, 0xb8, 0x28, 0xbd, 0x0a, 0xda, 0xd5, 0x3d, 0xd7, 0x7c, 0xcc, 0xbd,
  0x96, 0x25, 0x0d, 0xbe, 0x09, 0x6c, 0x1f, 0xbe, 0x5c, 0xb0, 0x90, 0x3d,
  0x3b, 0xf1, 0x03, 0xbd, 0xeb, 0xac, 0x8e, 0xbd, 0x88, 0x28, 0x8d, 0xbd,
  0x57, 0x3b, 0x0e, 0x3e, 0xee, 0xaa, 0x18, 0x3e, 0x74, 0x4c, 0xd6, 0x3d,
  0x60, 0xd7, 0xa9, 0x3b, 0x34, 0xf0, 0x6f, 0xbe, 0x70, 0xe3, 0x14, 0xbe,
  0x1d, 0xe5, 0x24, 0x3d, 0x51, 0xed, 0xf4, 0x3d, 0x39, 0x40, 0x60, 0x3d,
  0xff, 0x66, 0x4b, 0x3a, 0x9c, 0xf9, 0xa5, 0xbd, 0x10, 0x90, 0xc7, 0x3d,
  0x53, 0x9e, 0x04, 0xbd, 0x81, 0x93, 0xed, 0x3c, 0x6a, 0x89, 0xf1, 0x3d,
  0xe5, 0x08, 0x5e, 0xbc, 0xb7, 0x66, 0xb9, 0xbd, 0x45, 0xfb, 0x97, 0x3d,
  0xd9, 0xc5, 0x00, 0xbc, 0x5e, 0x1a, 0x14, 0x3e, 0xb8, 0x33, 0xc2, 0xbb,
  0x3f, 0x70, 0x9e, 0x3d, 0x70, 0x6a, 0x38, 0x3e, 0x8f, 0x65, 0xea, 0xbd,
  0x82, 0x64, 0x9c, 0x3d, 0x3b, 0x90, 0xfe, 0x3c, 0xe0, 0x20, 0x1b, 0xbe,
  0x34, 0x90, 0x12, 0x3e, 0xab, 0x0f, 0xcf, 0xbd, 0xa6, 0x6f, 0x64, 0xbe,
  0xbc, 0x73, 0x0e, 0x3d, 0x1a, 0xe6, 0xcb, 0xbc, 0x8b, 0xae, 0xd6, 0x3d,
  0x29, 0x60, 0x20, 0xbe, 0x79, 0xa3, 0xbf, 0x3d, 0x94, 0x6b, 0x30, 0xbe,
  0xf5, 0xb8, 0x10, 0xbe, 0xf2, 0xba, 0xde, 0xbb, 0x7d, 0x6b, 0x5c, 0x3d,
  0xfc, 0x52, 0x0a, 0xbe, 0xba, 0x27, 0x8c, 0xbc, 0x93, 0x15, 0x20, 0x3e,
  0xed, 0x6c, 0xf4, 0x3c, 0xaa, 0xc4, 0x44, 0x3d, 0x80, 0xc2, 0x11, 0xbe,
  0xfc, 0x93, 0x0d, 0xbe, 0x90, 0x8d, 0x2b, 0x3e, 0xff, 0xce, 0x05, 0xbd,
  0x75, 0xce, 0xbd, 0x3d, 0x79, 0xab, 0x31, 0x3d, 0xd3, 0x12, 0x9e, 0x3d,
  0x27, 0x31, 0x22, 0xbd, 0x2f, 0xf7, 0x2a, 0xbd, 0xb6, 0x6f, 0x9f, 0xbd,
  0x6b, 0x20, 0xf1, 0xbd, 0x92, 0x2e, 0x19, 0x3e, 0x5d, 0x1d, 0x36, 0x3c,
  0xf5, 0x46, 0x1e, 0x3e, 0x91, 0xa1, 0xaf, 0x3d, 0x20, 0xc5, 0x97, 0x3d,
  0xcc, 0xfe, 0xb3, 0xbd, 0x81, 0x43, 0x04, 0x3c, 0x6a, 0xbd, 0x30, 0x3d,
  0x21, 0xf0, 0x3a, 0xbe, 0x26, 0xed, 0x14, 0x3e, 0xb1, 0xfa, 0x9f, 0xbd,
  0xa5, 0xb5, 0x13, 0x3e, 0x04, 0x61, 0x0e, 0xbc, 0xea, 0xe8, 0xc2, 0x3d,
  0xc9, 0x2e, 0x1f, 0x3c, 0x27, 0x9c, 0x6e, 0x3d, 0xe7, 0xa5, 0xf4, 0x3d,
  0x0d, 0x00, 0x04, 0xbe, 0xf0, 0xff, 0x12, 0xbe, 0x82, 0x71, 0xfc, 0x3c,
  0x40, 0x92, 0x2b, 0x3d, 0xe0, 0x8e, 0x46, 0xbd, 0x24, 0x2a, 0xcf, 0xbd,
  0xee, 0x01, 0x51, 0xbd, 0xba, 0x28, 0x08, 0xbe, 0x89, 0x81, 0x81, 0xbd,
  0x54, 0xf2, 0x91, 0xbd, 0xe4, 0xa5, 0x22, 0x3e, 0x92, 0xf1, 0x1a, 0x3d,
  0x70, 0xee, 0x1a, 0x3e, 0xbf, 0xd7, 0x2a, 0xbc, 0xcc, 0x96, 0x8e, 0xbe,
  0x88, 0x84, 0x1d, 0xbe, 0xed, 0xce, 0x07, 0x3d, 0x2b, 0x92, 0x85, 0xbd,
  0xdb, 0xf1, 0xd1, 0x3b, 0xbe, 0x69, 0xa0, 0x3d, 0x48, 0x2a, 0xb0, 0x3d,
  0x12, 0xa8, 0xd6, 0xbd, 0x7b, 0x59, 0xae, 0xbd, 0x63, 0x75, 0x36, 0x3e,
  0x16, 0xdb, 0x8e, 0x3d, 0x74, 0xed, 0x76, 0xbd, 0xee, 0x75, 0xc4, 0x3d,
  0xe4, 0x29, 0xbe, 0x3d, 0x2f, 0x29, 0x77, 0x3d, 0x9a, 0x1a, 0xb5, 0xbd,
  0x89, 0x54, 0xfc, 0xbd, 0x1c, 0xee, 0xe4, 0x3c, 0x94, 0x80, 0x60, 0xbc,
  0x30, 0x17, 0x92, 0xbd, 0x16, 0xde, 0xd6, 0x3d, 0x11, 0xa0, 0x0a, 0xbd,
  0x6d, 0x16, 0x00, 0x3e, 0x7a, 0x2b, 0xc6, 0xbc, 0x82, 0x68, 0xae, 0x3d,
  0xc6, 0xe3, 0x8f, 0x3d, 0xfb, 0x98, 0x38, 0xbd, 0xd9, 0x98, 0x57, 0x3e,
  0xf7, 0x55, 0xab, 0xbc, 0xf7, 0xec, 0xa9, 0x3d, 0x61, 0x22, 0xa0, 0xbd,
  0xa5, 0xa5, 0x17, 0xbe, 0x4e, 0x10, 0x90, 0x3c, 0x4b, 0x7e, 0x67, 0xbd,
  0x4e, 0x9a, 0xb9, 0x3d, 0xc5, 0x56, 0xad, 0xbd, 0x14, 0x5d, 0x21, 0xbc,
  0xf1, 0x37, 0x0e, 0xbe, 0x15, 0x85, 0x01, 0xbe, 0x04, 0xa6, 0x1b, 0xbe,
  0x4c, 0x4b, 0x4d, 0xbe, 0x31, 0x04, 0x17, 0xbe, 0x9a, 0xe7, 0x34, 0xbd,
  0xba, 0x90, 0x6e, 0x3c, 0x7e, 0xc4, 0x20, 0xbe, 0x14, 0x81, 0x8a, 0x3d,
  0xa5, 0xea, 0x12, 0x3e, 0x1e, 0x67, 0xf3, 0xbd, 0xf1, 0xa0, 0xc0, 0x3d,
  0x3c, 0xa4, 0xa6, 0xbd, 0x25, 0xbd, 0x59, 0x3c, 0x7d, 0xf2, 0x39, 0x3e,
  0x3f, 0xcd, 0xef, 0xbc, 0x1a, 0xfc, 0x07, 0x3e, 0xa3, 0x5d, 0x2b, 0x3e,
  0xe0, 0x61, 0xf0, 0x3c, 0x9e, 0x58, 0x72, 0x3e, 0x0f, 0x6d, 0x7c, 0x3e,
  0x66, 0x7f, 0xe7, 0x3d, 0x12, 0x80, 0x82, 0x3e, 0x14, 0x20, 0x08, 0xbc,
  0x50, 0x6e, 0xac, 0x3c, 0x30, 0x2e, 0x9a, 0xbd, 0x11, 0xf0, 0xc8, 0xbd,
  0xa7, 0xf0, 0x0a, 0xbe, 0x66, 0x18, 0x11, 0xbd, 0x9d, 0x5f, 0x07, 0x3e,
  0x09, 0x40, 0x6b, 0xbc, 0x42, 0x4f, 0xc4, 0xbd, 0x15, 0x01, 0xe7, 0xbd,
  0x8b, 0x08, 0x42, 0xbd, 0x09, 0x78, 0xbf, 0x3d, 0x81, 0xfb, 0xb8, 0xbd,
  0xec, 0x2f, 0x17, 0x3d, 0x4f, 0x68, 0x52, 0xbe, 0x14, 0x15, 0x83, 0xbe,
  0x55, 0xc7, 0x4c, 0xbd, 0x43, 0x86, 0xbb, 0xbd, 0x3c, 0xf1, 0xda, 0xbc,
  0xd1, 0x32, 0x49, 0xbd, 0xfd, 0x2e, 0x01, 0x3e, 0x39, 0x08, 0x35, 0x3e,
  0x6f, 0x11, 0x8c, 0xbd, 0x78, 0x0e, 0xc8, 0xbd, 0x27, 0xaf, 0x91, 0xbc,
  0xa3, 0x6d, 0x4c, 0x3e, 0x9e, 0x19, 0x89, 0x3d, 0x61, 0x96, 0x54, 0x3e,
  0x70, 0x1a, 0x31, 0xbd, 0xbf, 0x6d, 0x03, 0xbd, 0x1c, 0xf6, 0xd8, 0x3d,
  0x17, 0xba, 0x1b, 0x3e, 0x40, 0x20, 0xc9, 0xbd, 0x6b, 0x04, 0x2d, 0x3e,
  0x68, 0x9c, 0xb7, 0xbd, 0xb2, 0x32, 0x24, 0xbe, 0xaa, 0x05, 0xe5, 0xbd,
  0x96, 0x02, 0x8f, 0x3d, 0x31, 0x53, 0x05, 0xbe, 0xf5, 0x45, 0x6d, 0x3d,
  0xde, 0x84, 0xfe, 0x3d, 0x6e, 0x49, 0xd1, 0xbd, 0x97, 0x15, 0x90, 0x3c,
  0x1c, 0xdb, 0x16, 0xbe, 0xad, 0x39, 0x4d, 0x3e, 0xbb, 0xb0, 0xa9, 0xbd,
  0xe1, 0xc9, 0xaf, 0xbd, 0x3f, 0x1b, 0xd5, 0xbd, 0xc3, 0xbb, 0x30, 0x3e,
  0xcd, 0xa4, 0x2c, 0x3e, 0x1b, 0x22, 0x34, 0xbe, 0x7d, 0x29, 0xa5, 0x3d,
  0x21, 0xff, 0x92, 0x3d, 0x81, 0x7b, 0xa4, 0xbd, 0x0d, 0xe1, 0x3e, 0x3c,
  0x68, 0x81, 0xa7, 0x3d, 0x37, 0x0a, 0x49, 0xbd, 0xce, 0x11, 0xfc, 0x3d,
  0xef, 0xdc, 0xee, 0xbd, 0x06, 0x10, 0x0f, 0xbd, 0x82, 0x3f, 0x18, 0x3d,
  0x0a, 0xf7, 0x0b, 0xbe, 0xa3, 0x73, 0x82, 0x3c, 0x5c, 0x88, 0x40, 0x3e,
  0x9c, 0x62, 0x37, 0x3d, 0xab, 0x69, 0xff, 0xbd, 0xad, 0x2f, 0x7f, 0xbd,
  0xa3, 0x0b, 0x13, 0xbd, 0x7c, 0xfb, 0x89, 0xbd, 0xca, 0x32, 0x99, 0xbc,
  0x26, 0x3e, 0x52, 0xbc, 0xe8, 0xbc, 0xb7, 0x3d, 0xe4, 0xb0, 0x51, 0x3d,
  0x06, 0xd6, 0x28, 0x3d, 0xf2, 0x32, 0xb7, 0x3d, 0xe6, 0xed, 0xad, 0xbd,
  0x2a, 0xfc, 0x00, 0xbd, 0x10, 0xe3, 0xd3, 0xbb, 0x2c, 0xb9, 0x96, 0xbd,
  0x5c, 0xf4, 0x3e, 0xbc, 0x19, 0xd3, 0x34, 0xbe, 0x58, 0x44, 0x02, 0x3e,
  0xb4, 0x7e, 0x46, 0x3d, 0x2b, 0x9d, 0x1c, 0x3e, 0xba, 0x4d, 0x73, 0xbd,
  0xa8, 0xad, 0x9b, 0x3d, 0x89, 0x38, 0x02, 0x3e, 0x1f, 0xba, 0x65, 0xbd,
  0x02, 0x76, 0x9e, 0x3d, 0x82, 0xf5, 0x1b, 0xbe, 0x66, 0xf4, 0x07, 0xbe,
  0x15, 0xdd, 0xcf, 0x3d, 0x73, 0x84, 0x32, 0xbe, 0x1c, 0x68, 0xf0, 0xbd,
  0xf9, 0xac, 0x4b, 0xbd, 0x02, 0x9d, 0x09, 0x3a, 0xe7, 0x76, 0xe0, 0xbd,
  0x8e, 0xf1, 0xf5, 0xbd, 0xcd, 0xea, 0x25, 0x3e, 0x08, 0x6c, 0x64, 0x3d,
  0x13, 0xa3, 0xac, 0x3d, 0xcd, 0x70, 0x95, 0x3c, 0x5f, 0xdb, 0xa4, 0xbd,
  0xeb, 0xe3, 0x1c, 0x3d, 0xdf, 0x20, 0x01, 0x3d, 0xe7, 0xd9, 0x05, 0xbe,
  0x2b, 0x94, 0x11, 0x3e, 0x4d, 0x06, 0x24, 0xbd, 0x4f, 0xdc, 0x72, 0x3d,
  0x3c, 0x5a, 0xb4, 0xbd, 0xc3, 0xf2, 0x0b, 0xbe, 0x37, 0x29, 0x00, 0xbe,
  0x67, 0xa3, 0x0b, 0x3e, 0x0a, 0xd1, 0xe4, 0x3d, 0x57, 0x76, 0xd1, 0xbc,
  0x5f, 0x7f, 0x90, 0x3c, 0x87, 0xff, 0xc5, 0xbb, 0x65, 0x84, 0xd6, 0x3c,
  0xa0, 0xbf, 0x2b, 0x3d, 0xc9, 0x8d, 0x1a, 0x3e, 0xf2, 0xa5, 0x1c, 0x3e,
  0x62, 0x5b, 0x9b, 0xbd, 0xdb, 0x0c, 0x11, 0x3d, 0x98, 0xbe, 0x10, 0x3d,
  0x2d, 0xce, 0xdc, 0xbd, 0xda, 0xad, 0x9b, 0xbd, 0x29, 0xdf, 0xee, 0xbd,
  0x45, 0xa2, 0x5e, 0xbd, 0x2e, 0x77, 0xd7, 0xbb, 0xa0, 0xaa, 0x50, 0x3d,
  0x7b, 0x12, 0x14, 0xbe, 0xa5, 0x06, 0x8d, 0xbd, 0xec, 0xe6, 0xa3, 0xbd,
  0x2a, 0x59, 0xdf, 0x3d, 0x5c, 0xa1, 0xbe, 0x3c, 0x9e, 0x57, 0xa7, 0x3d,
  0xa6, 0x06, 0xba, 0xbd, 0x1a, 0xee, 0xad, 0xbd, 0x3d, 0x55, 0xce, 0x3d,
  0xd2, 0x27, 0xad, 0x3d, 0x62, 0x14, 0x5e, 0x3e, 0x02, 0x2e, 0x25, 0x3e,
  0x24, 0xb5, 0x80, 0xbd, 0xca, 0x49, 0x09, 0x3e, 0x07, 0x41, 0x18, 0x3e,
  0xba, 0x2d, 0xa5, 0xbd, 0x70, 0x7b, 0x82, 0x3d, 0xdb, 0xf2, 0x41, 0xbc,
  0x4c, 0xc1, 0x86, 0xbd, 0x11, 0x41, 0xcf, 0x3d, 0xa7, 0x75, 0x3d, 0xbe,
  0x83, 0x17, 0x1c, 0xbd, 0x18, 0x38, 0x9a, 0xbd, 0x33, 0x3a, 0x0c, 0xbd,
  0xcf, 0xba, 0x08, 0x3d, 0xc3, 0x9f, 0x9d, 0x3c, 0x46, 0xae, 0xc5, 0xbd,
  0x70, 0x5f, 0xb0, 0x3d, 0xbb, 0x61, 0x06, 0x3e, 0x58, 0x48, 0xc2, 0xbd,
  0x31, 0xae, 0x36, 0x3e, 0xcd, 0x97, 0xb1, 0xbb, 0xb1, 0xa4, 0xfb, 0xbd,
  0x9e, 0x70, 0x3f, 0x3d, 0xe7, 0x44, 0xb9, 0x3d, 0xb3, 0x35, 0xb1, 0xbd,
  0x18, 0x3c, 0x9f, 0xbc, 0xc2, 0x02, 0xae, 0x3d, 0xc6, 0xd6, 0xe2, 0x3c,
  0xd7, 0xdb, 0xbf, 0x3d, 0xe6, 0x72, 0x09, 0x3c, 0xb3, 0x44, 0x86, 0x3b,
  0x22, 0x09, 0xf1, 0xbd, 0x6b, 0x8e, 0x16, 0xbe, 0x51, 0xf5, 0xd6, 0x3d,
  0x03, 0x83, 0x08, 0xbe, 0x21, 0xcb, 0x8a, 0x3d, 0x85, 0xfb, 0xd1, 0x3c,
  0x1a, 0x18, 0x31, 0xbd, 0x97, 0x60, 0xba, 0xbd, 0xe7, 0xfc, 0x42, 0xbe,
  0x80, 0x28, 0xc1, 0x3d, 0xbc, 0xcd, 0xdd, 0x3d, 0xe1, 0x26, 0x90, 0xbc,
  0x85, 0x6f, 0xf9, 0xbd, 0x03, 0x81, 0x98, 0x3c, 0x65, 0xc6, 0x06, 0xbe,
  0x69, 0xa9, 0x4b, 0xbc, 0x41, 0x72, 0xac, 0xbd, 0x3c, 0xcb, 0xe3, 0xbd,
  0x16, 0xac, 0xcc, 0xbd, 0x25, 0x6e, 0x23, 0x3e, 0xf4, 0x6d, 0x98, 0x3b,
  0x1a, 0xfc, 0xce, 0xbd, 0x66, 0xae, 0x34, 0x3e, 0x5c, 0x5d, 0x30, 0x3c,
  0x97, 0xde, 0x99, 0x3c, 0x1f, 0x23, 0x89, 0x3d, 0x54, 0x2d, 0xd6, 0xbb,
  0x4a, 0xc4, 0x4a, 0x3d, 0x86, 0xad, 0x08, 0x3e, 0x50, 0x2a, 0x8d, 0x3d,
  0xaf, 0x35, 0xa5, 0xbb, 0xfc, 0x22, 0x9b, 0xbd, 0x95, 0xa8, 0x3e, 0xbd,
  0xa1, 0x7d, 0x19, 0xbe, 0x93, 0x1e, 0x69, 0x3c, 0x34, 0x27, 0x0b, 0x3d,
  0xc9, 0x91, 0x87, 0xbd, 0x31, 0x1a, 0xf7, 0x3c, 0x4a, 0xba, 0x14, 0x3e,
  0x7d, 0xb4, 0x87, 0xbc, 0x64, 0xd6, 0x96, 0xbd, 0x0c, 0x5d, 0x1a, 0xbd,
  0xe4, 0x3e, 0xda, 0x3d, 0x25, 0x98, 0xbc, 0xbd, 0x5f, 0x34, 0x98, 0xbd,
  0x8c, 0x41, 0xc7, 0xbc, 0xbd, 0x69, 0xa7, 0x3d, 0xd5, 0xd3, 0xf0, 0xbd,
  0xa7, 0x99, 0x84, 0xbd, 0xd3, 0xd8, 0x16, 0x3c, 0x54, 0xea, 0x5a, 0x3d,
  0x47, 0xd1, 0xbf, 0xbd, 0xee, 0x41, 0xcc, 0x3c, 0x8c, 0x24, 0x02, 0xbe,
  0x1f, 0x87, 0xe0, 0xbd, 0x48, 0xf3, 0x9e, 0x3c, 0x53, 0xa3, 0x6a, 0x3d,
  0xae, 0x62, 0xa7, 0x3d, 0x27, 0x3b, 0x11, 0x3e, 0x88, 0x86, 0x1e, 0xbe,
  0xd2, 0x28, 0x25, 0xbe, 0x19, 0x05, 0xe0, 0xbd, 0xab, 0xdf, 0x05, 0xbe,
  0x6e, 0x14, 0xb1, 0x3d, 0x4a, 0x24, 0x86, 0xbc, 0x34, 0x8d, 0xff, 0xbd,
  0x10, 0x05, 0x94, 0xbd, 0xf9, 0xbc, 0x20, 0xbe, 0x81, 0xf6, 0x15, 0x3d,
  0xcb, 0xf5, 0xda, 0xbb, 0xec, 0xad, 0x02, 0xbe, 0x6e, 0x5d, 0x7d, 0xbd,
  0xb6, 0xdd, 0xe2, 0xbc, 0x74, 0xb3, 0x8a, 0x3d, 0x10, 0x9a, 0x07, 0xbe,
  0x9b, 0xa7, 0xf2, 0x3d, 0x2d, 0x68, 0x8a, 0x3d, 0xa8, 0x2f, 0xcf, 0xbd,
  0x70, 0xad, 0xd0, 0xbd, 0x02, 0xc4, 0x45, 0xbe, 0xb1, 0x6c, 0x0a, 0xbd,
  0xb7, 0x60, 0xa9, 0x3d, 0x7a, 0x74, 0x17, 0xbe, 0xe9, 0x6b, 0x42, 0xbe,
  0xb0, 0x4e, 0xb9, 0xbd, 0xea, 0xd4, 0xc1, 0x3d, 0xaf, 0x8a, 0x03, 0xbe,
  0x40, 0x09, 0xe0, 0xbd, 0x83, 0xd0, 0x57, 0xbe, 0x24, 0xfc, 0xe7, 0x3c,
  0xf5, 0x08, 0x63, 0xbe, 0xc1, 0xb8, 0xeb, 0xbc, 0x1d, 0xa0, 0x56, 0xbe,
  0x7d, 0x37, 0x79, 0xbe, 0x5c, 0xb4, 0x93, 0x3d, 0x03, 0x8c, 0x53, 0xbd,
  0x63, 0xe3, 0x69, 0xbe, 0xdf, 0x94, 0x52, 0xbe, 0xfa, 0x00, 0x36, 0xbd,
  0x8e, 0x1e, 0x37, 0xbd, 0xed, 0x1b, 0xbf, 0x3d, 0x9e, 0xdf, 0x59, 0xbd,
  0xdb, 0x17, 0xf9, 0xbd, 0xc5, 0xaa, 0x0d, 0xbe, 0x49, 0x62, 0x7c, 0x3d,
  0x01, 0x69, 0x0b, 0x3a, 0x79, 0x1e, 0x5b, 0x3d, 0x16, 0x3f, 0xc2, 0xbc,
  0x69, 0x86, 0x24, 0xbd, 0x95, 0x3b, 0x82, 0x3c, 0xab, 0x16, 0xca, 0x3c,
  0xf2, 0x2a, 0xf6, 0xbc, 0x17, 0xfd, 0xf8, 0x3c, 0xbf, 0x38, 0x13, 0xbe,
  0x77, 0xc3, 0x4a, 0x3d, 0x56, 0xae, 0x28, 0xbe, 0x27, 0xe6, 0x12, 0x3d,
  0xab, 0x9d, 0x9b, 0x3d, 0x30, 0x5b, 0x10, 0x3e, 0x9b, 0x47, 0xcd, 0x3d,
  0xb2, 0x60, 0xd3, 0xbd, 0x25, 0x51, 0x20, 0xbe, 0xa6, 0x40, 0xb8, 0xbd,
  0x3a, 0xc4, 0xd6, 0x3d, 0xda, 0x28, 0x9a, 0xbc, 0x1b, 0xa1, 0x06, 0x3e,
  0x31, 0x8c, 0xf6, 0xbd, 0x3a, 0xb0, 0x6e, 0x3d, 0x01, 0xf3, 0x89, 0xbd,
  0x91, 0xc0, 0x42, 0xbe, 0x7a, 0x40, 0xc8, 0xbd, 0x7f, 0x8f, 0x53, 0xbd,
  0xc7, 0xa4, 0x39, 0xbe, 0xd2, 0xd8, 0x8e, 0x3b, 0xe3, 0x83, 0x2b, 0x3d,
  0x89, 0x09, 0x1a, 0xbd, 0x0e, 0x91, 0x97, 0x3d, 0x69, 0xe2, 0x54, 0x3d,
  0x74, 0x1c, 0xa1, 0xbc, 0x35, 0x5f, 0xd0, 0x3d, 0x78, 0xd6, 0x84, 0x3d,
  0x36, 0xfa, 0xe2, 0x3d, 0x62, 0x69, 0x64, 0xbe, 0xf3, 0x20, 0xc7, 0x3c,
  0xc4, 0x9e, 0x44, 0xbe, 0xe3, 0xd0, 0x2a, 0xbe, 0xbe, 0xd4, 0xd7, 0x3c,
  0x41, 0xd3, 0x38, 0xbd, 0x80, 0xa9, 0xb1, 0x3d, 0x23, 0xe1, 0x88, 0x3c,
  0x8b, 0x35, 0x04, 0xbe, 0x94, 0x34, 0x81, 0x3c, 0xfb, 0x84, 0x45, 0xbe,
  0xd8, 0x29, 0xc7, 0xb9, 0x6e, 0x07, 0xb8, 0xbd, 0xa3, 0x97, 0x16, 0xbe,
  0xd4, 0xaf, 0xc7, 0xbd, 0x7a, 0x37, 0x32, 0xbe, 0x7f, 0xf6, 0x4c, 0x3d,
  0xfb, 0xa4, 0x36, 0xbe, 0x50, 0x6e, 0x9f, 0x3d, 0x1b, 0xf0, 0x11, 0xbe,
  0xb4, 0xdc, 0x49, 0xbe, 0xa7, 0x04, 0x9c, 0xbc, 0x0a, 0x4e, 0x2e, 0xbe,
  0x57, 0x94, 0xb1, 0xbd, 0x15, 0x40, 0x81, 0xbb, 0x91, 0x31, 0xf0, 0xbc,
  0x07, 0x6d, 0x87, 0xbd, 0x20, 0x87, 0x27, 0x3e, 0xbb, 0x7c, 0x6c, 0xbd,
  0x53, 0xed, 0x71, 0xbd, 0x2f, 0x28, 0x25, 0xbe, 0x50, 0x69, 0x17, 0x3d,
  0x5e, 0x43, 0x2d, 0xbe, 0x0d, 0xf1, 0x29, 0xbe, 0x4c, 0xcb, 0x12, 0xbe,
  0x9b, 0xfd, 0x80, 0xbb, 0x27, 0xfa, 0xd9, 0xbc, 0x83, 0xb0, 0xaa, 0x3d,
  0xb0, 0xf9, 0x12, 0xbe, 0x4a, 0x30, 0xfd, 0xbd, 0xc7, 0x4c, 0x1a, 0x3d,
  0x78, 0xbe, 0x80, 0x3c, 0x3c, 0x33, 0xa6, 0xbc, 0xd4, 0x23, 0x83, 0xbd,
  0xdf, 0xc7, 0xaa, 0xbc, 0xcd, 0x5c, 0x3d, 0x3e, 0xe8, 0x24, 0x76, 0xbd,
  0xe2, 0xa4, 0x87, 0xbb, 0xc0, 0x27, 0x17, 0xbe, 0x6a, 0xc9, 0x9a, 0xbd,
  0x13, 0x9b, 0xaf, 0x3d, 0x4e, 0xe0, 0x22, 0xbe, 0x61, 0xea, 0x4c, 0xbd,
  0x8e, 0xc7, 0x86, 0xbd, 0xb1, 0xf5, 0x4f, 0xbe, 0x7d, 0x93, 0xf4, 0xbd,
  0x0f, 0x32, 0x2c, 0xbe, 0xf7, 0xa3, 0x5c, 0xbe, 0x41, 0x22, 0x4a, 0xbe,
  0xd5, 0xfe, 0x2e, 0xbe, 0x1d, 0x1a, 0xe5, 0x3d, 0x6a, 0x49, 0x0d, 0xbe,
  0x65, 0x6b, 0xf7, 0xbd, 0x8e, 0x3c, 0x6c, 0xbd, 0x6e, 0x1d, 0xad, 0xbd,
  0x9b, 0x6f, 0x3f, 0xbc, 0x1f, 0x4b, 0x8b, 0x3c, 0xf3, 0xde, 0x89, 0x3d,
  0x5f, 0x4f, 0x8a, 0xbb, 0x02, 0x5d, 0x7c, 0xbd, 0xe8, 0x11, 0x8b, 0x3c,
  0x83, 0xe8, 0xb9, 0x3d, 0x13, 0x46, 0xa3, 0xbd, 0xe4, 0xbe, 0x27, 0xbe,
  0x3d, 0xd6, 0xd7, 0x3d, 0xf5, 0xaa, 0xdc, 0x3d, 0x77, 0x7f, 0xbb, 0xbd,
  0x13, 0xd4, 0xf1, 0x3d, 0x16, 0xe0, 0x00, 0x3e, 0xdc, 0x7a, 0x2b, 0x3e,
  0x54, 0xc6, 0x21, 0x3e, 0xdf, 0xf5, 0xd1, 0xbd, 0x15, 0x48, 0x2a, 0x3e,
  0x97, 0xcb, 0x00, 0x3d, 0x4a, 0x7b, 0xcb, 0x3c, 0x6f, 0x19, 0x12, 0x3d,
  0xd6, 0xd7, 0x6d, 0x3d, 0x3b, 0xb6, 0x4d, 0xbd, 0x96, 0xf6, 0x27, 0x3b,
  0x57, 0xe4, 0xad, 0x3d, 0xb3, 0x55, 0x80, 0x3d, 0x54, 0x44, 0x4a, 0xbe,
  0x7c, 0xad, 0x58, 0x3d, 0x3c, 0xe9, 0x2a, 0xbe, 0xf3, 0x85, 0x84, 0xbd,
  0x32, 0xc6, 0x43, 0xbe, 0x7a, 0x4a, 0x0b, 0xbc, 0x12, 0x45, 0x2f, 0xbd,
  0xe0, 0x9b, 0x26, 0xbe, 0x7b, 0xb5, 0x0d, 0x3d, 0x0c, 0x05, 0xd5, 0xbc,
  0x50, 0x05, 0x92, 0xba, 0xde, 0xcf, 0x4d, 0x3d, 0x78, 0xe9, 0xb5, 0x3d,
  0x40, 0x90, 0x17, 0xbe, 0x5c, 0x90, 0x30, 0xbe, 0xf7, 0x1c, 0x61, 0x3d,
  0xd1, 0xde, 0x77, 0xbb, 0x66, 0xb5, 0xe2, 0xbd, 0xea, 0x3a, 0xd2, 0x3d,
  0x9e, 0xfe, 0x20, 0xbe, 0xfa, 0x3e, 0x1f, 0xbe, 0xda, 0x36, 0xc1, 0x3b,
  0x2f, 0x69, 0xa1, 0xbd, 0x5c, 0x93, 0x67, 0xbd, 0xcc, 0x0f, 0x54, 0xbe,
  0x55, 0x47, 0x7d, 0x3d, 0x85, 0xc6, 0x13, 0xbe, 0x17, 0xd0, 0x35, 0x3d,
  0x9a, 0xbd, 0xa3, 0xbd, 0xd7, 0xd7, 0xbe, 0x3d, 0x24, 0xc2, 0xba, 0xbd,
  0xe7, 0xdc, 0x21, 0x3e, 0x0e, 0xb1, 0xa5, 0xbd, 0xee, 0xf9, 0x17, 0x3e,
  0x34, 0xed, 0xd2, 0x3c, 0xdf, 0xd4, 0xaa, 0x3d, 0xfa, 0xd0, 0x40, 0xbd,
  0x41, 0x91, 0x4c, 0x3d, 0x19, 0x55, 0x2d, 0xbe, 0x9e, 0x5b, 0xaf, 0x3d,
  0xf5, 0x60, 0x98, 0x3d, 0xb2, 0xb3, 0x99, 0xbd, 0xf8, 0x25, 0x1c, 0xbe,
  0xf9, 0xe2, 0x04, 0x3e, 0xa5, 0xaa, 0x05, 0xbe, 0x5e, 0x0d, 0xe5, 0x3c,
  0xa8, 0xf3, 0xbd, 0xbd, 0xa8, 0x2f, 0xcf, 0xbd, 0x58, 0x07, 0xa5, 0xbc,
  0xba, 0x3e, 0xe5, 0xbd, 0x57, 0x98, 0x00, 0x3e, 0x39, 0x6e, 0x01, 0x3e,
  0x4d, 0x67, 0xab, 0x3d, 0x0f, 0x38, 0xac, 0xbd, 0x3e, 0x31, 0x18, 0x3e,
  0xf3, 0xb3, 0x2c, 0x3e, 0x53, 0x4f, 0xf9, 0xbd, 0xd2, 0x8b, 0x1d, 0x3e,
  0xb1, 0x53, 0x08, 0x3e, 0xcf, 0xb7, 0x97, 0xbd, 0x2c, 0xdb, 0xb3, 0xbd,
  0x5f, 0x5b, 0x15, 0xbc, 0x87, 0x78, 0x02, 0x3e, 0x5c, 0xf5, 0xea, 0x3d,
  0x2c, 0x1d, 0xd9, 0xbd, 0x7f, 0x22, 0xc6, 0x3c, 0xe6, 0x90, 0x95, 0x3d,
  0x5e, 0x6c, 0xcf, 0xbb, 0xb9, 0x17, 0x58, 0xbd, 0xc5, 0xb5, 0x08, 0x3e,
  0x67, 0xc6, 0x10, 0x3e, 0x70, 0x7a, 0xda, 0x3d, 0xce, 0x2e, 0xea, 0x3d,
  0x42, 0x01, 0x21, 0xbe, 0xe0, 0xa5, 0x61, 0xbd, 0x95, 0x36, 0x04, 0xbe,
  0x91, 0xd9, 0x5b, 0xbd, 0x42, 0x3f, 0xff, 0xbd, 0xd2, 0x66, 0x12, 0xbd,
  0x30, 0x88, 0x4b, 0x3c, 0x5f, 0x86, 0x89, 0x3d, 0xf1, 0x58, 0xc4, 0x3d,
  0x24, 0xaf, 0x48, 0x3d, 0x2a, 0x11, 0xf8, 0x3d, 0x69, 0x89, 0x7d, 0xbc,
  0xbe, 0x2d, 0x6f, 0x3d, 0x08, 0xbf, 0xd2, 0xbd, 0x19, 0xc9, 0x48, 0x3c,
  0x3e, 0x65, 0x3f, 0xb9, 0x45, 0x8d, 0x9c, 0xbc, 0x12, 0x15, 0x1e, 0xbe,
  0x6c, 0x2b, 0x8d, 0xbd, 0xe4, 0xb7, 0xe0, 0xbd, 0xf3, 0x7c, 0x0c, 0xbd,
  0xf3, 0x03, 0x8d, 0x3c, 0x82, 0xad, 0x92, 0xbd, 0x21, 0x54, 0x01, 0x3e,
  0x6c, 0x1c, 0x05, 0x3e, 0x0e, 0xc6, 0xd4, 0x3d, 0x7f, 0xdb, 0x43, 0x3d,
  0x17, 0x94, 0x8a, 0xbd, 0x0b, 0xae, 0xcd, 0xbd, 0x55, 0x58, 0x19, 0x3d,
  0xb4, 0x7f, 0xdb, 0xbd, 0x91, 0x19, 0x16, 0x3e, 0x5f, 0x37, 0x61, 0xbd,
  0x58, 0x7f, 0x3c, 0xbc, 0x7b, 0xe1, 0xe4, 0xbc, 0x95, 0x8e, 0x46, 0x3e,
  0xb8, 0xf5, 0x74, 0xbc, 0x7f, 0x06, 0x8a, 0xbd, 0x77, 0x65, 0x08, 0x3e,
  0x89, 0xa9, 0x73, 0xbd, 0x9b, 0xd9, 0x22, 0x3e, 0x27, 0x55, 0xff, 0xbd,
  0xb7, 0x3a, 0x1a, 0x3e, 0x2e, 0x98, 0xe2, 0xbc, 0x38, 0x47, 0xbe, 0xbc,
  0x95, 0xe7, 0xa5, 0xbd, 0x20, 0x9b, 0xac, 0x3d, 0x5e, 0x6d, 0x0c, 0xbe,
  0x4a, 0x99, 0xe5, 0x3b, 0x49, 0xeb, 0xb4, 0xbd, 0x03, 0xeb, 0xae, 0xbc,
  0x04, 0xdc, 0x69, 0x3a, 0xad, 0x42, 0x9d, 0x3a, 0x2b, 0xc1, 0x2d, 0x3d,
  0x84, 0x8e, 0xd8, 0xbd, 0xf4, 0xc6, 0xc4, 0xbd, 0x83, 0x14, 0x01, 0xbe,
  0x43, 0xcf, 0xd8, 0x3d, 0x4a, 0xea, 0x9c, 0xbd, 0x6f, 0xcf, 0xdc, 0x3d,
  0x5a, 0x68, 0xc8, 0x3c, 0xeb, 0x96, 0xcf, 0xbc, 0x59, 0xba, 0x05, 0x3e,
  0x01, 0xbb, 0x7d, 0xbb, 0x2d, 0x61, 0xb2, 0xbd, 0xb8, 0x90, 0xbb, 0xbd,
  0x17, 0x41, 0xdc, 0xbb, 0xe9, 0x5f, 0x09, 0x3e, 0x9a, 0xa4, 0xcf, 0x3d,
  0x0d, 0xa4, 0xae, 0x3a, 0x90, 0x5c, 0x3e, 0x3d, 0xae, 0x07, 0xbc, 0x3d,
  0x2d, 0xaa, 0x11, 0x3c, 0xa6, 0x70, 0xbb, 0x3d, 0xbd, 0x82, 0x43, 0x3d,
  0xef, 0xc2, 0x9e, 0xbd, 0xfa, 0x80, 0x0a, 0xbe, 0x6b, 0x56, 0xbb, 0x3d,
  0x22, 0xfe, 0xa2, 0x3d, 0x71, 0x32, 0x83, 0xbc, 0x84, 0x90, 0x31, 0x3e,
  0x29, 0xc4, 0x81, 0xbd, 0x09, 0x3d, 0xf5, 0xbd, 0xfa, 0xf5, 0x10, 0xbd,
  0xb7, 0xe8, 0x91, 0x3c, 0xcc, 0x28, 0x11, 0x3e, 0x29, 0xd7, 0x28, 0x3e,
  0x4f, 0x99, 0x16, 0x3e, 0x74, 0x90, 0x27, 0xbd, 0x9e, 0x2b, 0xb7, 0xbb,
  0x8a, 0x35, 0x8c, 0xbd, 0xe1, 0xc9, 0x92, 0xbb, 0x84, 0x66, 0x5a, 0xbd,
  0x4c, 0x68, 0xe7, 0x3d, 0x5e, 0xf8, 0x9c, 0x3b, 0x99, 0xd8, 0xba, 0xbd,
  0xda, 0x41, 0x53, 0xbd, 0x5f, 0x46, 0x06, 0x3d, 0xa8, 0x51, 0x0b, 0xbd,
  0x61, 0xd3, 0xb8, 0xbd, 0x87, 0xe2, 0x26, 0xbd, 0x09, 0xb9, 0x89, 0x3d,
  0x65, 0x98, 0xcd, 0xbd, 0x2a, 0x0e, 0x1e, 0x3d, 0x45, 0x55, 0xd1, 0xbd,
  0x01, 0x0c, 0x04, 0xbe, 0xdc, 0x0c, 0xb5, 0xbc, 0x8a, 0x3a, 0x0c, 0x3e,
  0xf8, 0x1b, 0x5a, 0x3d, 0x53, 0x04, 0xa5, 0x3d, 0x0b, 0x3a, 0x90, 0xbd,
  0x8f, 0xdd, 0x03, 0xbd, 0x3c, 0xcf, 0x6a, 0xbc, 0x9d, 0x3a, 0x1b, 0x3e,
  0x3a, 0x88, 0x2a, 0x3e, 0x52, 0x21, 0x4f, 0x3d, 0x2c, 0xe4, 0x1d, 0x3e,
  0xc4, 0x00, 0x01, 0x3e, 0xc0, 0x01, 0x23, 0x3e, 0x1e, 0x42, 0x93, 0x3c,
  0xa3, 0x99, 0x0e, 0x3a, 0x63, 0x9f, 0x06, 0x3e, 0x99, 0x4b, 0x09, 0x3d,
  0x5b, 0xbb, 0xda, 0xbc, 0x42, 0x88, 0xdc, 0x3d, 0xb3, 0xc9, 0x75, 0xbd,
  0x20, 0x3f, 0x31, 0xbd, 0x6f, 0x36, 0x11, 0xbc, 0x43, 0x6e, 0xac, 0xbd,
  0x33, 0x0a, 0xc1, 0xbc, 0x13, 0xe9, 0xc9, 0x3d, 0xb3, 0xf7, 0xe8, 0xbd,
  0x0b, 0x19, 0x50, 0x3c, 0x2c, 0x5f, 0x01, 0x3e, 0x41, 0x9f, 0xf7, 0x3b,
  0xcf, 0xe8, 0x12, 0x3e, 0x7a, 0xe7, 0xba, 0xbd, 0xb7, 0x68, 0x11, 0x3e,
  0xf8, 0xef, 0xcf, 0x3d, 0x80, 0xd8, 0xf7, 0xbd, 0x8b, 0xa1, 0xd2, 0xbb,
  0xc6, 0x8a, 0x63, 0x3d, 0xdf, 0x80, 0x0f, 0x3a, 0x44, 0xc8, 0xdb, 0xbc,
  0x28, 0xa3, 0x8a, 0xb7, 0x73, 0x69, 0xa6, 0xbd, 0xe9, 0xd3, 0x3f, 0x3d,
  0x72, 0x78, 0xc3, 0xbd, 0x98, 0x84, 0xd6, 0x3d, 0xa7, 0x09, 0x01, 0x3e,
  0x5d, 0x50, 0x03, 0x3e, 0x24, 0x27, 0x08, 0xbd, 0x35, 0x2d, 0x23, 0xbe,
  0x43, 0xa2, 0xaa, 0x3d, 0xc4, 0x91, 0x06, 0x3e, 0xb8, 0x7e, 0xf0, 0x3c,
  0x90, 0x30, 0x17, 0xbe, 0x00, 0x4e, 0x02, 0xbe, 0x83, 0xe6, 0x88, 0x3d,
  0x80, 0xa7, 0xf0, 0x3d, 0x60, 0x18, 0x1e, 0x3d, 0x5d, 0xb2, 0x92, 0xbc,
  0xbe, 0xdd, 0xd4, 0x3d, 0xa1, 0x8a, 0xdd, 0x3d, 0xff, 0x63, 0xcb, 0x3c,
  0xf5, 0x01, 0x5e, 0x3d, 0x62, 0xa6, 0x22, 0xbd, 0x88, 0xb1, 0x08, 0xbe,
  0x0c, 0x7e, 0xca, 0x3d, 0x00, 0xd0, 0x89, 0x3d, 0x05, 0x6f, 0xc7, 0xbc,
  0x70, 0x40, 0xf3, 0xbd, 0x64, 0xd7, 0xc5, 0xbd, 0xf2, 0x52, 0x53, 0x3d,
  0xec, 0xc3, 0xba, 0xbd, 0x39, 0xb9, 0x0c, 0x3d, 0x82, 0xce, 0x8b, 0x3d,
  0x8b, 0x30, 0x97, 0xbb, 0xc8, 0xac, 0x02, 0x3e, 0x49, 0x37, 0x57, 0x3d,
  0x8c, 0x80, 0x9f, 0x3d, 0x3f, 0xd8, 0xa3, 0xbd, 0x52, 0x92, 0xf0, 0x3d,
  0xd7, 0x5a, 0xe5, 0xbd, 0x7a, 0x44, 0x9f, 0x3c, 0x56, 0x59, 0x86, 0xbd,
  0xa2, 0x5f, 0x22, 0x3e, 0xd5, 0xfa, 0x9e, 0xbd, 0xf3, 0xa8, 0xe0, 0xbb,
  0xb7, 0xe6, 0x86, 0x3d, 0x79, 0xd6, 0x89, 0xbd, 0x26, 0xff, 0xff, 0xff,
  0x04, 0x00, 0x00, 0x00, 0x28, 0x00, 0x00, 0x00, 0x22, 0x12, 0xfd, 0xbd,
  0x69, 0x6f, 0x00, 0xbe, 0x84, 0x25, 0xa7, 0xbd, 0x56, 0x17, 0x06, 0xbe,
  0xa4, 0xbb, 0xf8, 0xbd, 0x4f, 0x4d, 0xd0, 0xbd, 0xf6, 0x15, 0x33, 0xbe,
  0xad, 0x23, 0x77, 0x3e, 0x2d, 0x56, 0x59, 0x3e, 0x70, 0x25, 0x82, 0x3e,
  0x5a, 0xff, 0xff, 0xff, 0x04, 0x00, 0x00, 0x00, 0x08, 0x00, 0x00, 0x00,
  0xc8, 0x2e, 0x95, 0xbe, 0xc8, 0x2e, 0x95, 0x3e, 0xb0, 0xfb, 0xff, 0xff,
  0xb4, 0xfb, 0xff, 0xff, 0x0f, 0x00, 0x00, 0x00, 0x4d, 0x4c, 0x49, 0x52,
  0x20, 0x43, 0x6f, 0x6e, 0x76, 0x65, 0x72, 0x74, 0x65, 0x64, 0x2e, 0x00,
  0x01, 0x00, 0x00, 0x00, 0x14, 0x00, 0x00, 0x00, 0x00, 0x00, 0x0e, 0x00,
  0x18, 0x00, 0x14, 0x00, 0x10, 0x00, 0x0c, 0x00, 0x08, 0x00, 0x04, 0x00,
  0x0e, 0x00, 0x00, 0x00, 0x14, 0x00, 0x00, 0x00, 0x1c, 0x00, 0x00, 0x00,
  0xec, 0x00, 0x00, 0x00, 0xf0, 0x00, 0x00, 0x00, 0xf4, 0x00, 0x00, 0x00,
  0x04, 0x00, 0x00, 0x00, 0x6d, 0x61, 0x69, 0x6e, 0x00, 0x00, 0x00, 0x00,
  0x03, 0x00, 0x00, 0x00, 0x94, 0x00, 0x00, 0x00, 0x50, 0x00, 0x00, 0x00,
  0x14, 0x00, 0x00, 0x00, 0x00, 0x00, 0x0e, 0x00, 0x1a, 0x00, 0x14, 0x00,
  0x10, 0x00, 0x0c, 0x00, 0x0b, 0x00, 0x04, 0x00, 0x0e, 0x00, 0x00, 0x00,
  0x1c, 0x00, 0x00, 0x00, 0x00, 0x00, 0x00, 0x09, 0x1c, 0x00, 0x00, 0x00,
  0x20, 0x00, 0x00, 0x00, 0x01, 0x00, 0x00, 0x00, 0x00, 0x00, 0x06, 0x00,
  0x08, 0x00, 0x04, 0x00, 0x06, 0x00, 0x00, 0x00, 0x00, 0x00, 0x80, 0x3f,
  0x01, 0x00, 0x00, 0x00, 0x07, 0x00, 0x00, 0x00, 0x01, 0x00, 0x00, 0x00,
  0x06, 0x00, 0x00, 0x00, 0xce, 0xff, 0xff, 0xff, 0x10, 0x00, 0x00, 0x00,
  0x00, 0x00, 0x00, 0x08, 0x0c, 0x00, 0x00, 0x00, 0x10, 0x00, 0x00, 0x00,
  0x74, 0xfc, 0xff, 0xff, 0x01, 0x00, 0x00, 0x00, 0x06, 0x00, 0x00, 0x00,
  0x03, 0x00, 0x00, 0x00, 0x05, 0x00, 0x00, 0x00, 0x04, 0x00, 0x00, 0x00,
  0x01, 0x00, 0x00, 0x00, 0x00, 0x00, 0x0e, 0x00, 0x16, 0x00, 0x00, 0x00,
  0x10, 0x00, 0x0c, 0x00, 0x0b, 0x00, 0x04, 0x00, 0x0e, 0x00, 0x00, 0x00,
  0x18, 0x00, 0x00, 0x00, 0x00, 0x00, 0x00, 0x08, 0x18, 0x00, 0x00, 0x00,
  0x1c, 0x00, 0x00, 0x00, 0x00, 0x00, 0x06, 0x00, 0x08, 0x00, 0x07, 0x00,
  0x06, 0x00, 0x00, 0x00, 0x00, 0x00, 0x00, 0x01, 0x01, 0x00, 0x00, 0x00,
  0x05, 0x00, 0x00, 0x00, 0x03, 0x00, 0x00, 0x00, 0x00, 0x00, 0x00, 0x00,
  0x03, 0x00, 0x00, 0x00, 0x02, 0x00, 0x00, 0x00, 0x01, 0x00, 0x00, 0x00,
  0x07, 0x00, 0x00, 0x00, 0x01, 0x00, 0x00, 0x00, 0x00, 0x00, 0x00, 0x00,
  0x08, 0x00, 0x00, 0x00, 0xe8, 0x02, 0x00, 0x00, 0x78, 0x02, 0x00, 0x00,
  0x08, 0x02, 0x00, 0x00, 0xbc, 0x01, 0x00, 0x00, 0x70, 0x01, 0x00, 0x00,
  0xdc, 0x00, 0x00, 0x00, 0x60, 0x00, 0x00, 0x00, 0x04, 0x00, 0x00, 0x00,
  0x4e, 0xfd, 0xff, 0xff, 0x00, 0x00, 0x00, 0x01, 0x14, 0x00, 0x00, 0x00,
  0x1c, 0x00, 0x00, 0x00, 0x1c, 0x00, 0x00, 0x00, 0x08, 0x00, 0x00, 0x00,
  0x34, 0x00, 0x00, 0x00, 0x02, 0x00, 0x00, 0x00, 0xff, 0xff, 0xff, 0xff,
  0x02, 0x00, 0x00, 0x00, 0x38, 0xfd, 0xff, 0xff, 0x19, 0x00, 0x00, 0x00,
  0x53, 0x74, 0x61, 0x74, 0x65, 0x66, 0x75, 0x6c, 0x50, 0x61, 0x72, 0x74,
  0x69, 0x74, 0x69, 0x6f, 0x6e, 0x65, 0x64, 0x43, 0x61, 0x6c, 0x6c, 0x3a,
  0x30, 0x00, 0x00, 0x00, 0x02, 0x00, 0x00, 0x00, 0x01, 0x00, 0x00, 0x00,
  0x02, 0x00, 0x00, 0x00, 0xa6, 0xfd, 0xff, 0xff, 0x00, 0x00, 0x00, 0x01,
  0x14, 0x00, 0x00, 0x00, 0x1c, 0x00, 0x00, 0x00, 0x1c, 0x00, 0x00, 0x00,
  0x07, 0x00, 0x00, 0x00, 0x54, 0x00, 0x00, 0x00, 0x02, 0x00, 0x00, 0x00,
  0xff, 0xff, 0xff, 0xff, 0x02, 0x00, 0x00, 0x00, 0x90, 0xfd, 0xff, 0xff,
  0x38, 0x00, 0x00, 0x00, 0x73, 0x65, 0x71, 0x75, 0x65, 0x6e, 0x74, 0x69,
  0x61, 0x6c, 0x5f, 0x34, 0x2f, 0x64, 0x65, 0x6e, 0x73, 0x65, 0x5f, 0x39,
  0x2f, 0x4d, 0x61, 0x74, 0x4d, 0x75, 0x6c, 0x3b, 0x73, 0x65, 0x71, 0x75,
  0x65, 0x6e, 0x74, 0x69, 0x61, 0x6c, 0x5f, 0x34, 0x2f, 0x64, 0x65, 0x6e,
  0x73, 0x65, 0x5f, 0x39, 0x2f, 0x42, 0x69, 0x61, 0x73, 0x41, 0x64, 0x64,
  0x00, 0x00, 0x00, 0x00, 0x02, 0x00, 0x00, 0x00, 0x01, 0x00, 0x00, 0x00,
  0x02, 0x00, 0x00, 0x00, 0x1e, 0xfe, 0xff, 0xff, 0x00, 0x00, 0x00, 0x01,
  0x14, 0x00, 0x00, 0x00, 0x1c, 0x00, 0x00, 0x00, 0x1c, 0x00, 0x00, 0x00,
  0x06, 0x00, 0x00, 0x00, 0x6c, 0x00, 0x00, 0x00, 0x02, 0x00, 0x00, 0x00,
  0xff, 0xff, 0xff, 0xff, 0x0a, 0x00, 0x00, 0x00, 0x08, 0xfe, 0xff, 0xff,
  0x52, 0x00, 0x00, 0x00, 0x73, 0x65, 0x71, 0x75, 0x65, 0x6e, 0x74, 0x69,
  0x61, 0x6c, 0x5f, 0x34, 0x2f, 0x64, 0x65, 0x6e, 0x73, 0x65, 0x5f, 0x38,
  0x2f, 0x4d, 0x61, 0x74, 0x4d, 0x75, 0x6c, 0x3b, 0x73, 0x65, 0x71, 0x75,
  0x65, 0x6e, 0x74, 0x69, 0x61, 0x6c, 0x5f, 0x34, 0x2f, 0x64, 0x65, 0x6e,
  0x73, 0x65, 0x5f, 0x38, 0x2f, 0x52, 0x65, 0x6c, 0x75, 0x3b, 0x73, 0x65,
  0x71, 0x75, 0x65, 0x6e, 0x74, 0x69, 0x61, 0x6c, 0x5f, 0x34, 0x2f, 0x64,
  0x65, 0x6e, 0x73, 0x65, 0x5f, 0x38, 0x2f, 0x42, 0x69, 0x61, 0x73, 0x41,
  0x64, 0x64, 0x00, 0x00, 0x02, 0x00, 0x00, 0x00, 0x01, 0x00, 0x00, 0x00,
  0x0a, 0x00, 0x00, 0x00, 0x1a, 0xff, 0xff, 0xff, 0x00, 0x00, 0x00, 0x01,
  0x10, 0x00, 0x00, 0x00, 0x10, 0x00, 0x00, 0x00, 0x05, 0x00, 0x00, 0x00,
  0x28, 0x00, 0x00, 0x00, 0x88, 0xfe, 0xff, 0xff, 0x1b, 0x00, 0x00, 0x00,
  0x73, 0x65, 0x71, 0x75, 0x65, 0x6e, 0x74, 0x69, 0x61, 0x6c, 0x5f, 0x34,
  0x2f, 0x64, 0x65, 0x6e, 0x73, 0x65, 0x5f, 0x39, 0x2f, 0x4d, 0x61, 0x74,
  0x4d, 0x75, 0x6c, 0x00, 0x02, 0x00, 0x00, 0x00, 0x02, 0x00, 0x00, 0x00,
  0x0a, 0x00, 0x00, 0x00, 0x62, 0xff, 0xff, 0xff, 0x00, 0x00, 0x00, 0x01,
  0x10, 0x00, 0x00, 0x00, 0x10, 0x00, 0x00, 0x00, 0x04, 0x00, 0x00, 0x00,
  0x28, 0x00, 0x00, 0x00, 0xd0, 0xfe, 0xff, 0xff, 0x1b, 0x00, 0x00, 0x00,
  0x73, 0x65, 0x71, 0x75, 0x65, 0x6e, 0x74, 0x69, 0x61, 0x6c, 0x5f, 0x34,
  0x2f, 0x64, 0x65, 0x6e, 0x73, 0x65, 0x5f, 0x38, 0x2f, 0x4d, 0x61, 0x74,
  0x4d, 0x75, 0x6c, 0x00, 0x02, 0x00, 0x00, 0x00, 0x0a, 0x00, 0x00, 0x00,
  0xc8, 0x00, 0x00, 0x00, 0xaa, 0xff, 0xff, 0xff, 0x00, 0x00, 0x00, 0x01,
  0x10, 0x00, 0x00, 0x00, 0x10, 0x00, 0x00, 0x00, 0x03, 0x00, 0x00, 0x00,
  0x38, 0x00, 0x00, 0x00, 0x18, 0xff, 0xff, 0xff, 0x2b, 0x00, 0x00, 0x00,
  0x73, 0x65, 0x71, 0x75, 0x65, 0x6e, 0x74, 0x69, 0x61, 0x6c, 0x5f, 0x34,
  0x2f, 0x64, 0x65, 0x6e, 0x73, 0x65, 0x5f, 0x38, 0x2f, 0x42, 0x69, 0x61,
  0x73, 0x41, 0x64, 0x64, 0x2f, 0x52, 0x65, 0x61, 0x64, 0x56, 0x61, 0x72,
  0x69, 0x61, 0x62, 0x6c, 0x65, 0x4f, 0x70, 0x00, 0x01, 0x00, 0x00, 0x00,
  0x0a, 0x00, 0x00, 0x00, 0x00, 0x00, 0x16, 0x00, 0x18, 0x00, 0x14, 0x00,
  0x00, 0x00, 0x10, 0x00, 0x0c, 0x00, 0x08, 0x00, 0x00, 0x00, 0x00, 0x00,
  0x00, 0x00, 0x07, 0x00, 0x16, 0x00, 0x00, 0x00, 0x00, 0x00, 0x00, 0x01,
  0x10, 0x00, 0x00, 0x00, 0x10, 0x00, 0x00, 0x00, 0x02, 0x00, 0x00, 0x00,
  0x38, 0x00, 0x00, 0x00, 0x84, 0xff, 0xff, 0xff, 0x2b, 0x00, 0x00, 0x00,
  0x73, 0x65, 0x71, 0x75, 0x65, 0x6e, 0x74, 0x69, 0x61, 0x6c, 0x5f, 0x34,
  0x2f, 0x64, 0x65, 0x6e, 0x73, 0x65, 0x5f, 0x39, 0x2f, 0x42, 0x69, 0x61,
  0x73, 0x41, 0x64, 0x64, 0x2f, 0x52, 0x65, 0x61, 0x64, 0x56, 0x61, 0x72,
  0x69, 0x61, 0x62, 0x6c, 0x65, 0x4f, 0x70, 0x00, 0x01, 0x00, 0x00, 0x00,
  0x02, 0x00, 0x00, 0x00, 0x00, 0x00, 0x16, 0x00, 0x1c, 0x00, 0x18, 0x00,
  0x00, 0x00, 0x14, 0x00, 0x10, 0x00, 0x0c, 0x00, 0x00, 0x00, 0x00, 0x00,
  0x08, 0x00, 0x07, 0x00, 0x16, 0x00, 0x00, 0x00, 0x00, 0x00, 0x00, 0x01,
  0x14, 0x00, 0x00, 0x00, 0x20, 0x00, 0x00, 0x00, 0x20, 0x00, 0x00, 0x00,
  0x01, 0x00, 0x00, 0x00, 0x3c, 0x00, 0x00, 0x00, 0x02, 0x00, 0x00, 0x00,
  0xff, 0xff, 0xff, 0xff, 0xc8, 0x00, 0x00, 0x00, 0x04, 0x00, 0x04, 0x00,
  0x04, 0x00, 0x00, 0x00, 0x1f, 0x00, 0x00, 0x00, 0x73, 0x65, 0x72, 0x76,
  0x69, 0x6e, 0x67, 0x5f, 0x64, 0x65, 0x66, 0x61, 0x75, 0x6c, 0x74, 0x5f,
  0x64, 0x65, 0x6e, 0x73, 0x65, 0x5f, 0x38, 0x5f, 0x69, 0x6e, 0x70, 0x75,
  0x74, 0x3a, 0x30, 0x00, 0x02, 0x00, 0x00, 0x00, 0x01, 0x00, 0x00, 0x00,
  0xc8, 0x00, 0x00, 0x00, 0x02, 0x00, 0x00, 0x00, 0x20, 0x00, 0x00, 0x00,
  0x04, 0x00, 0x00, 0x00, 0xf4, 0xff, 0xff, 0xff, 0x19, 0x00, 0x00, 0x00,
  0x00, 0x00, 0x00, 0x19, 0x0c, 0x00, 0x0c, 0x00, 0x0b, 0x00, 0x00, 0x00,
  0x00, 0x00, 0x04, 0x00, 0x0c, 0x00, 0x00, 0x00, 0x09, 0x00, 0x00, 0x00,
  0x00, 0x00, 0x00, 0x09
};
const int g_model_len = 9844;